// File ini dihasilkan secara otomatis dari hasil pelatihan model MLP Keras.
// Konfigurasi: 36 input fitur, 5 kelas output.

#ifndef MODEL_DATA_H
#define MODEL_DATA_H

// Ukuran file model.tflite dalam byte
const unsigned int g_model_len = 5312;

// Byte array representasi biner model TFLite Micro
const unsigned char g_model[] alignas(16) = {
  0x1c, 0x00, 0x00, 0x00, 0x54, 0x46, 0x4c, 0x33, 0x14, 0x00, 0x20, 0x00,
  0x1c, 0x00, 0x18, 0x00, 0x14, 0x00, 0x10, 0x00, 0x0c, 0x00, 0x00, 0x00,
  0x08, 0x00, 0x04, 0x00, 0x14, 0x00, 0x00, 0x00, 0x1c, 0x00, 0x00, 0x00,
  0x94, 0x00, 0x00, 0x00, 0xec, 0x00, 0x00, 0x00, 0x20, 0x0e, 0x00, 0x00,
  0x30, 0x0e, 0x00, 0x00, 0x5c, 0x14, 0x00, 0x00, 0x03, 0x00, 0x00, 0x00,
  0x01, 0x00, 0x00, 0x00, 0x10, 0x00, 0x00, 0x00, 0x00, 0x00, 0x0a, 0x00,
  0x10, 0x00, 0x0c, 0x00, 0x08, 0x00, 0x04, 0x00, 0x0a, 0x00, 0x00, 0x00,
  0x0c, 0x00, 0x00, 0x00, 0x1c, 0x00, 0x00, 0x00, 0x3c, 0x00, 0x00, 0x00,
  0x0f, 0x00, 0x00, 0x00, 0x73, 0x65, 0x72, 0x76, 0x69, 0x6e, 0x67, 0x5f,
  0x64, 0x65, 0x66, 0x61, 0x75, 0x6c, 0x74, 0x00, 0x01, 0x00, 0x00, 0x00,
  0x04, 0x00, 0x00, 0x00, 0x94, 0xff, 0xff, 0xff, 0x0a, 0x00, 0x00, 0x00,
  0x04, 0x00, 0x00, 0x00, 0x08, 0x00, 0x00, 0x00, 0x6f, 0x75, 0x74, 0x70,
  0x75, 0x74, 0x5f, 0x30, 0x00, 0x00, 0x00, 0x00, 0x01, 0x00, 0x00, 0x00,
  0x04, 0x00, 0x00, 0x00, 0xc6, 0xf1, 0xff, 0xff, 0x04, 0x00, 0x00, 0x00,
  0x0b, 0x00, 0x00, 0x00, 0x69, 0x6e, 0x70, 0x75, 0x74, 0x5f, 0x6c, 0x61,
  0x79, 0x65, 0x72, 0x00, 0x02, 0x00, 0x00, 0x00, 0x34, 0x00, 0x00, 0x00,
  0x04, 0x00, 0x00, 0x00, 0xdc, 0xff, 0xff, 0xff, 0x0d, 0x00, 0x00, 0x00,
  0x04, 0x00, 0x00, 0x00, 0x13, 0x00, 0x00, 0x00, 0x43, 0x4f, 0x4e, 0x56,
  0x45, 0x52, 0x53, 0x49, 0x4f, 0x4e, 0x5f, 0x4d, 0x45, 0x54, 0x41, 0x44,
  0x41, 0x54, 0x41, 0x00, 0x08, 0x00, 0x0c, 0x00, 0x08, 0x00, 0x04, 0x00,
  0x08, 0x00, 0x00, 0x00, 0x0c, 0x00, 0x00, 0x00, 0x04, 0x00, 0x00, 0x00,
  0x13, 0x00, 0x00, 0x00, 0x6d, 0x69, 0x6e, 0x5f, 0x72, 0x75, 0x6e, 0x74,
  0x69, 0x6d, 0x65, 0x5f, 0x76, 0x65, 0x72, 0x73, 0x69, 0x6f, 0x6e, 0x00,
  0x0e, 0x00, 0x00, 0x00, 0x30, 0x0d, 0x00, 0x00, 0x28, 0x0d, 0x00, 0x00,
  0xf8, 0x0c, 0x00, 0x00, 0xd4, 0x0c, 0x00, 0x00, 0x24, 0x0c, 0x00, 0x00,
  0x14, 0x0a, 0x00, 0x00, 0x04, 0x01, 0x00, 0x00, 0xb4, 0x00, 0x00, 0x00,
  0xac, 0x00, 0x00, 0x00, 0xa4, 0x00, 0x00, 0x00, 0x9c, 0x00, 0x00, 0x00,
  0x94, 0x00, 0x00, 0x00, 0x74, 0x00, 0x00, 0x00, 0x04, 0x00, 0x00, 0x00,
  0x76, 0xf2, 0xff, 0xff, 0x04, 0x00, 0x00, 0x00, 0x60, 0x00, 0x00, 0x00,
  0x10, 0x00, 0x00, 0x00, 0x00, 0x00, 0x00, 0x00, 0x08, 0x00, 0x0e, 0x00,
  0x08, 0x00, 0x04, 0x00, 0x08, 0x00, 0x00, 0x00, 0x10, 0x00, 0x00, 0x00,
  0x24, 0x00, 0x00, 0x00, 0x00, 0x00, 0x06, 0x00, 0x08, 0x00, 0x04, 0x00,
  0x06, 0x00, 0x00, 0x00, 0x04, 0x00, 0x00, 0x00, 0x00, 0x00, 0x00, 0x00,
  0x0c, 0x00, 0x18, 0x00, 0x14, 0x00, 0x10, 0x00, 0x0c, 0x00, 0x04, 0x00,
  0x0c, 0x00, 0x00, 0x00, 0x22, 0x05, 0xe5, 0xec, 0x9f, 0x40, 0x81, 0x09,
  0x02, 0x00, 0x00, 0x00, 0x02, 0x00, 0x00, 0x00, 0x04, 0x00, 0x00, 0x00,
  0x06, 0x00, 0x00, 0x00, 0x32, 0x2e, 0x32, 0x31, 0x2e, 0x30, 0x00, 0x00,
  0xe2, 0xf2, 0xff, 0xff, 0x04, 0x00, 0x00, 0x00, 0x10, 0x00, 0x00, 0x00,
  0x31, 0x2e, 0x35, 0x2e, 0x30, 0x00, 0x00, 0x00, 0x00, 0x00, 0x00, 0x00,
  0x00, 0x00, 0x00, 0x00, 0x80, 0xed, 0xff, 0xff, 0x84, 0xed, 0xff, 0xff,
  0x88, 0xed, 0xff, 0xff, 0x8c, 0xed, 0xff, 0xff, 0x0e, 0xf3, 0xff, 0xff,
  0x04, 0x00, 0x00, 0x00, 0x40, 0x00, 0x00, 0x00, 0x61, 0x6c, 0x21, 0x3e,
  0x72, 0x40, 0xf8, 0x3c, 0x9b, 0x1f, 0x07, 0x3d, 0x08, 0x64, 0x1a, 0x3c,
  0xed, 0x29, 0x22, 0xbe, 0x46, 0x22, 0x61, 0x3e, 0x53, 0x42, 0x01, 0x3e,
  0x19, 0x64, 0x2f, 0xbd, 0x3c, 0xe3, 0x00, 0x3e, 0x2f, 0xb1, 0x68, 0x3e,
  0xb4, 0x1e, 0x4e, 0x3e, 0x89, 0xb9, 0xb7, 0x3d, 0x76, 0x2c, 0x8c, 0x3e,
  0xde, 0xd5, 0x71, 0xbd, 0x60, 0x56, 0x59, 0x3d, 0x59, 0xcd, 0x1e, 0x3e,
  0x5a, 0xf3, 0xff, 0xff, 0x04, 0x00, 0x00, 0x00, 0x00, 0x09, 0x00, 0x00,
  0xd0, 0xaf, 0xa3, 0x3e, 0x74, 0xa8, 0x0c, 0xbf, 0xc1, 0xea, 0x0d, 0xbe,
  0xb8, 0x00, 0x75, 0xbe, 0xcb, 0x30, 0xaf, 0xbe, 0x07, 0x3d, 0x32, 0xbe,
  0x9d, 0xbc, 0xf0, 0x3c, 0x2d, 0xbd, 0x26, 0x3e, 0x43, 0xe5, 0xdb, 0xbd,
  0x88, 0xe6, 0x0d, 0x3e, 0x4f, 0x5a, 0x4b, 0x3e, 0x3f, 0xc0, 0x37, 0x3d,
  0xeb, 0xce, 0x33, 0xbe, 0x51, 0x86, 0x43, 0xbd, 0x60, 0x42, 0x67, 0xbe,
  0xdd, 0x41, 0x80, 0xbb, 0xcd, 0x9f, 0x61, 0x3d, 0x90, 0x02, 0xf6, 0xbd,
  0x94, 0x61, 0x01, 0x3e, 0xa4, 0x40, 0x27, 0xbb, 0x59, 0x71, 0xc5, 0xbe,
  0x24, 0x60, 0xae, 0xbc, 0xc5, 0x49, 0x04, 0x3f, 0x62, 0x79, 0x05, 0x3d,
  0xee, 0xe7, 0xb9, 0x3d, 0x49, 0x8a, 0xf5, 0xbe, 0xc8, 0xd6, 0xe0, 0x3c,
  0x56, 0x66, 0x6e, 0xbe, 0x4b, 0x2d, 0x30, 0x3e, 0x63, 0x7d, 0xf1, 0xbe,
  0x7c, 0x85, 0x81, 0xbe, 0x9e, 0xb5, 0x8d, 0x3d, 0xe2, 0x27, 0x68, 0x3e,
  0xd6, 0x18, 0x9a, 0xbd, 0x52, 0xbb, 0xc2, 0xbe, 0xd2, 0xab, 0x7f, 0xbe,
  0x67, 0x37, 0xb5, 0x3c, 0x29, 0x25, 0x83, 0xbe, 0xc7, 0xb6, 0x00, 0xbe,
  0x06, 0x6c, 0x31, 0x3d, 0xdd, 0x03, 0x27, 0x3e, 0x0d, 0xf6, 0x64, 0x3e,
  0x0d, 0x34, 0x9c, 0x3e, 0xc8, 0x4d, 0xa1, 0x3e, 0xd6, 0xd1, 0x73, 0xbe,
  0x8c, 0x96, 0x1d, 0x3e, 0x54, 0xa1, 0xdd, 0x3d, 0x15, 0x15, 0x58, 0xbe,
  0x94, 0xc1, 0x3f, 0x3d, 0x87, 0xa2, 0x89, 0x3e, 0xfe, 0xdd, 0x56, 0xbe,
  0xfe, 0x35, 0x38, 0xbe, 0x4f, 0x3d, 0x76, 0xbe, 0x0a, 0xde, 0x56, 0x3e,
  0x60, 0x97, 0x30, 0xbd, 0x04, 0x23, 0x9f, 0xbe, 0xe7, 0x17, 0x8e, 0x3e,
  0x9f, 0x29, 0x10, 0xbe, 0x42, 0xbf, 0xc1, 0xbd, 0x84, 0x91, 0x06, 0xbe,
  0xbd, 0x3c, 0x97, 0x3c, 0xdd, 0x33, 0x11, 0x3e, 0xcd, 0xa4, 0xb7, 0xbe,
  0xc6, 0x6e, 0x67, 0x3e, 0x73, 0x68, 0xbe, 0xbc, 0x08, 0x34, 0x2f, 0x3e,
  0x29, 0x76, 0xd1, 0x3e, 0xf3, 0x54, 0xd6, 0xbd, 0x84, 0x6f, 0x49, 0x3e,
  0x92, 0xce, 0x22, 0xbe, 0xd7, 0x7a, 0x87, 0xbd, 0x86, 0xe0, 0x71, 0xbe,
  0x64, 0xea, 0x4a, 0x3d, 0x33, 0xd4, 0x03, 0xbe, 0x35, 0xb9, 0x1d, 0x3b,
  0x05, 0x18, 0x65, 0x3e, 0x7f, 0xa7, 0x89, 0xbe, 0x73, 0xd6, 0x12, 0xbe,
  0x5e, 0x58, 0x0f, 0xbe, 0x35, 0x02, 0x3d, 0xbe, 0x1f, 0x57, 0x47, 0x3e,
  0xd0, 0xff, 0xca, 0xbd, 0x60, 0xb7, 0xe1, 0xbe, 0xb9, 0xfb, 0xee, 0x3d,
  0x76, 0x1f, 0xfa, 0x3e, 0x52, 0x31, 0x63, 0x3e, 0x2b, 0x19, 0x62, 0x3e,
  0xd4, 0x0e, 0x69, 0x3e, 0x0e, 0xcd, 0xb1, 0x3e, 0x19, 0xd8, 0x89, 0x3d,
  0x66, 0x86, 0x52, 0x3e, 0x5a, 0xf5, 0xb8, 0x3e, 0x9f, 0x5b, 0xc7, 0xbe,
  0xb0, 0x98, 0x8d, 0xbe, 0x4c, 0xad, 0xd9, 0x3d, 0x76, 0x0d, 0x17, 0xbd,
  0x10, 0xdd, 0xbf, 0x3d, 0x20, 0x4e, 0xb9, 0xbe, 0x39, 0xa5, 0x9d, 0x3e,
  0x40, 0x0c, 0x8f, 0xbd, 0x38, 0xee, 0xe6, 0xbd, 0x7f, 0x24, 0xad, 0x3d,
  0x56, 0xd5, 0x46, 0xbe, 0x0d, 0x00, 0x79, 0xbd, 0x85, 0xd3, 0xba, 0xbc,
  0x37, 0x13, 0x47, 0x3e, 0xde, 0xb5, 0x0f, 0x3e, 0xe3, 0x89, 0xc3, 0xbe,
  0x8b, 0x29, 0xc8, 0x3e, 0x0f, 0x23, 0xe1, 0xbe, 0x98, 0x46, 0x1a, 0xbe,
  0xb9, 0xab, 0x97, 0x3d, 0xa8, 0x09, 0x45, 0xbe, 0x03, 0x6a, 0x02, 0xbd,
  0x1e, 0xee, 0xdd, 0xbe, 0xb8, 0xe4, 0x19, 0xbe, 0x76, 0xd7, 0x4d, 0xbe,
  0xfa, 0x48, 0x81, 0x3e, 0x31, 0x9f, 0x63, 0x3e, 0xcb, 0x10, 0x94, 0xbe,
  0xe2, 0x13, 0xa7, 0x3e, 0x7c, 0x6d, 0x1c, 0xbe, 0x2d, 0xbd, 0x17, 0x3e,
  0x35, 0x11, 0xb9, 0x3e, 0xd9, 0x92, 0x60, 0x3e, 0x8c, 0x45, 0xa2, 0x3e,
  0x46, 0x20, 0x07, 0xbd, 0xc2, 0x69, 0x83, 0x3e, 0x54, 0xd5, 0xb8, 0x3c,
  0xa2, 0x9a, 0x60, 0x3e, 0x4e, 0xce, 0x9e, 0xbe, 0x77, 0x66, 0x3a, 0xbd,
  0x50, 0xed, 0x8c, 0xbe, 0xf0, 0x2c, 0x40, 0xbe, 0x4c, 0x23, 0x93, 0xbe,
  0xcf, 0x42, 0xcd, 0xbe, 0xb3, 0xc1, 0xde, 0xbc, 0xd2, 0xd2, 0x58, 0x3d,
  0x39, 0xc5, 0x4c, 0x3e, 0x83, 0xdc, 0x84, 0x3d, 0x57, 0xf8, 0xb6, 0x3e,
  0x44, 0x25, 0xb1, 0xbd, 0x13, 0x95, 0xef, 0x3d, 0xcb, 0x64, 0x6a, 0x3e,
  0x44, 0xe4, 0x2a, 0xbe, 0x88, 0x65, 0x1f, 0xbe, 0xf8, 0x91, 0x87, 0x3e,
  0x68, 0x96, 0x3c, 0xbe, 0x6c, 0x89, 0xd4, 0x3e, 0x31, 0x28, 0xc5, 0xbc,
  0x2b, 0x3e, 0x97, 0x3e, 0xb5, 0x49, 0x55, 0x3e, 0x2c, 0xce, 0x0f, 0x3e,
  0x93, 0xea, 0x49, 0xbe, 0xad, 0x7f, 0x82, 0x3e, 0x9f, 0xcb, 0xeb, 0xbd,
  0x48, 0xfa, 0xf9, 0xbd, 0xcf, 0xfe, 0x66, 0xbe, 0xdf, 0x4c, 0x8e, 0xbd,
  0x04, 0xe9, 0x85, 0x3e, 0xe2, 0x5c, 0x8d, 0xbd, 0xc1, 0x60, 0x33, 0xbe,
  0x16, 0x3a, 0xc1, 0x3c, 0xa1, 0xc4, 0x48, 0x3d, 0x1a, 0x9b, 0x3a, 0xbe,
  0x72, 0xf2, 0x90, 0x3d, 0xbd, 0xf9, 0xdc, 0xbe, 0xfc, 0xac, 0xcb, 0x3d,
  0x10, 0x21, 0x47, 0x3e, 0x5a, 0x37, 0xa8, 0x3e, 0x7e, 0xfd, 0x65, 0xbb,
  0xd7, 0x43, 0x1d, 0x3e, 0xaf, 0x62, 0xa3, 0x3e, 0xd7, 0x9e, 0xf6, 0xbd,
  0x7c, 0xaf, 0xdd, 0x3d, 0xab, 0x77, 0x6f, 0xbe, 0xb5, 0x72, 0x8a, 0xbe,
  0x80, 0x5c, 0x8d, 0xbe, 0xb8, 0x15, 0xd3, 0x3d, 0xcc, 0x62, 0xa0, 0x3c,
  0x5f, 0xbb, 0xbb, 0xbc, 0x7f, 0x90, 0x91, 0x3e, 0x53, 0x58, 0xba, 0xbe,
  0x91, 0x28, 0xb5, 0xbe, 0x78, 0xec, 0x9d, 0x3e, 0x42, 0x4d, 0xad, 0xbe,
  0xbc, 0x3c, 0xe5, 0x3e, 0x9b, 0x01, 0xcb, 0xbd, 0x63, 0x86, 0x93, 0x3e,
  0xe2, 0xfa, 0x3b, 0x3e, 0xec, 0x20, 0xf2, 0xbd, 0xc6, 0xb6, 0xfd, 0x3e,
  0xaa, 0x9b, 0x76, 0x3d, 0xe5, 0xcf, 0x52, 0xbc, 0x4d, 0x7b, 0xf3, 0xbd,
  0xcb, 0xa5, 0x54, 0x3e, 0x48, 0x1d, 0x3f, 0xbe, 0x13, 0xe2, 0x04, 0x3e,
  0xc2, 0xd6, 0x58, 0xbd, 0xec, 0x72, 0x74, 0xbd, 0xa0, 0x9a, 0xf5, 0xbd,
  0x9d, 0x75, 0x0a, 0xbd, 0x6f, 0x7c, 0xd7, 0x3d, 0x5f, 0x26, 0x92, 0x3d,
  0x8f, 0x03, 0x8d, 0x3e, 0xc2, 0x6b, 0x77, 0xbe, 0x36, 0x9a, 0x8a, 0x3e,
  0x7e, 0x35, 0x81, 0x3d, 0x48, 0x38, 0xd5, 0xbd, 0x3b, 0x9e, 0xf0, 0xbe,
  0xaf, 0x40, 0x07, 0x3e, 0x09, 0x69, 0x23, 0x3f, 0xce, 0x38, 0x1c, 0xbf,
  0x8c, 0x2c, 0xfa, 0x3d, 0x86, 0xe4, 0x4e, 0x3e, 0xe7, 0x9d, 0xa4, 0x3e,
  0x87, 0x6e, 0x88, 0x3e, 0x4a, 0x6e, 0x6a, 0x3e, 0x79, 0xdf, 0xa9, 0x3d,
  0xa0, 0xcc, 0xff, 0x3d, 0x57, 0xa9, 0x8e, 0x3d, 0xad, 0xaf, 0x35, 0x3e,
  0x73, 0xe2, 0x33, 0xbd, 0x0b, 0x6c, 0x41, 0xbe, 0x3d, 0xb4, 0x58, 0xbe,
  0x8a, 0x92, 0xf4, 0x3c, 0x90, 0x2c, 0x8e, 0x3e, 0xb5, 0x4d, 0x90, 0xbe,
  0x65, 0x47, 0xb3, 0xbc, 0x81, 0x78, 0xb9, 0xbe, 0xba, 0xaf, 0xac, 0xbe,
  0xa4, 0x56, 0xc6, 0xbe, 0xf1, 0x1d, 0xa1, 0x3d, 0xab, 0xa6, 0x07, 0x3e,
  0x6d, 0x64, 0x37, 0x3e, 0xa8, 0x0c, 0xc2, 0x3d, 0x44, 0x78, 0x7e, 0xbe,
  0xa3, 0x3e, 0x33, 0xbe, 0x00, 0xb3, 0x8b, 0xbe, 0xc7, 0x71, 0x3e, 0x3d,
  0x25, 0x78, 0x7b, 0xbe, 0xa0, 0xc2, 0x9e, 0xbd, 0x60, 0x0a, 0x4c, 0xbe,
  0x2c, 0xfa, 0x10, 0x3e, 0x48, 0xdf, 0x25, 0xbe, 0x83, 0x88, 0xbe, 0x3e,
  0x47, 0x67, 0x09, 0x3e, 0x26, 0xfe, 0x51, 0xbe, 0xed, 0xd1, 0x11, 0x3e,
  0x06, 0x0a, 0x2b, 0x3e, 0x4f, 0x52, 0x9f, 0xbe, 0x82, 0x01, 0x13, 0xbe,
  0xfc, 0x61, 0x8a, 0xbe, 0xa6, 0x4e, 0x77, 0xbe, 0xa7, 0x6f, 0xac, 0x3d,
  0x24, 0x61, 0x41, 0x3e, 0x13, 0x2a, 0x44, 0x3e, 0x89, 0x42, 0x3d, 0x3e,
  0xf4, 0x20, 0x6d, 0xbe, 0x5b, 0x4d, 0x7f, 0xbd, 0x59, 0x56, 0xb8, 0xbe,
  0x76, 0x6c, 0xb8, 0x3e, 0xf8, 0x03, 0xdd, 0x3c, 0x3c, 0x7f, 0x30, 0xbe,
  0x2a, 0x24, 0x83, 0x3e, 0xe0, 0x48, 0x27, 0xbe, 0xbf, 0xd2, 0x40, 0x3e,
  0x24, 0x85, 0xb0, 0x3e, 0x45, 0x77, 0xce, 0x3d, 0x62, 0xd7, 0x92, 0xbc,
  0xa6, 0x9c, 0xa7, 0xbd, 0xfb, 0x1b, 0xd1, 0x3e, 0x90, 0x76, 0x83, 0x3e,
  0x20, 0x91, 0x3a, 0x3e, 0xa7, 0x9d, 0xe4, 0xbd, 0x0d, 0xf2, 0x45, 0x3c,
  0xca, 0x86, 0xa7, 0xbd, 0xd3, 0x74, 0x92, 0xbe, 0xf7, 0x49, 0x21, 0x3e,
  0x05, 0x57, 0xa0, 0xbe, 0x13, 0x92, 0x60, 0xbe, 0xea, 0xd3, 0x19, 0xbe,
  0x69, 0xc1, 0x5b, 0x3e, 0x72, 0x09, 0xe0, 0x3d, 0xca, 0x76, 0x30, 0x3c,
  0xf7, 0x50, 0x30, 0xbe, 0x0e, 0x47, 0x2d, 0xbe, 0x9e, 0xab, 0xa0, 0xbe,
  0xa4, 0xbc, 0x83, 0x3e, 0x63, 0xc6, 0x80, 0x3e, 0xbc, 0x72, 0xfd, 0xbd,
  0x98, 0xfd, 0x5a, 0x3e, 0xfb, 0xdc, 0x66, 0x3e, 0xae, 0xd7, 0xa8, 0x3e,
  0xe1, 0x95, 0xc0, 0xbe, 0xae, 0xff, 0xbe, 0xbd, 0x1c, 0x6a, 0xc6, 0xbd,
  0xcf, 0xc7, 0xf9, 0xbe, 0x9d, 0x6b, 0xba, 0x3d, 0x34, 0x82, 0x8f, 0xbd,
  0x60, 0x9e, 0x31, 0xbe, 0x7a, 0x1a, 0xf1, 0xbe, 0xe0, 0xd1, 0x38, 0x3e,
  0x6d, 0x0d, 0x3f, 0x3e, 0x54, 0x82, 0x42, 0xbf, 0x50, 0x90, 0xcd, 0xbc,
  0xe0, 0xc2, 0x8e, 0x3e, 0xec, 0xba, 0x1e, 0x3e, 0x42, 0x65, 0x77, 0x3e,
  0x70, 0xa4, 0x9f, 0xbe, 0xac, 0x19, 0x58, 0xbd, 0xa6, 0xfe, 0x77, 0xbd,
  0x7a, 0x73, 0x12, 0x3e, 0xa1, 0x34, 0x65, 0x3e, 0x9b, 0x9b, 0xef, 0xbe,
  0xd9, 0x1e, 0xd3, 0x3e, 0xab, 0x93, 0x51, 0xbd, 0xc9, 0x31, 0x45, 0x3e,
  0x6c, 0x73, 0x38, 0xbe, 0xc7, 0xa2, 0xea, 0xbe, 0x80, 0xdf, 0x2e, 0x3e,
  0x0d, 0xc0, 0x42, 0x3c, 0x35, 0x7d, 0x2f, 0xbe, 0x8a, 0xc6, 0xff, 0xbe,
  0xdb, 0xd2, 0x01, 0xbd, 0xec, 0x0a, 0xe1, 0xbe, 0xce, 0xac, 0x39, 0xbd,
  0x05, 0x9b, 0x8a, 0xbe, 0x40, 0x13, 0xc8, 0xbe, 0xaa, 0xa8, 0xf0, 0xbd,
  0xd8, 0x0e, 0x2b, 0x3e, 0x60, 0xa2, 0x03, 0xbe, 0xfd, 0x59, 0xb9, 0xbd,
  0xb3, 0xb7, 0x4c, 0x3d, 0x20, 0xfb, 0x5e, 0xbd, 0x06, 0x3b, 0xf8, 0x3c,
  0x66, 0x53, 0xc3, 0xbd, 0x64, 0x85, 0x93, 0xbe, 0x27, 0x36, 0x52, 0xbe,
  0x6f, 0xb8, 0x9c, 0xbe, 0x7f, 0x03, 0xa8, 0xbd, 0xf9, 0xd4, 0x93, 0x3c,
  0x54, 0x02, 0x0c, 0x3e, 0x13, 0x5e, 0x50, 0x3e, 0xfd, 0x5f, 0xca, 0xbe,
  0xe4, 0x0d, 0x82, 0x3e, 0x31, 0x84, 0xbe, 0x3e, 0xa2, 0x2c, 0x9e, 0x3c,
  0xd3, 0x68, 0x0d, 0xbd, 0xc6, 0x29, 0xcc, 0x3d, 0xae, 0xc6, 0xbf, 0xbd,
  0xd6, 0x35, 0x28, 0xbe, 0x78, 0x42, 0x55, 0xbe, 0x3f, 0x6b, 0x7f, 0xbe,
  0x90, 0xe4, 0x5f, 0x3e, 0xfe, 0x81, 0x9d, 0x3e, 0x2e, 0xa5, 0x3f, 0xbe,
  0x23, 0x2f, 0xf6, 0xbb, 0x49, 0x1f, 0x34, 0xbe, 0x15, 0x2d, 0x8e, 0xbe,
  0xc0, 0x7f, 0x08, 0xbf, 0xfb, 0x9d, 0x3a, 0xbe, 0x86, 0xdd, 0x8e, 0xbe,
  0x0a, 0x02, 0x1c, 0xbf, 0xa7, 0x03, 0x8a, 0xbd, 0xb6, 0xde, 0x85, 0xbe,
  0x98, 0xef, 0x34, 0xbe, 0xe2, 0x0d, 0x9b, 0xbe, 0x25, 0xe0, 0xea, 0x3e,
  0xfb, 0x6f, 0x50, 0xbd, 0xbb, 0x66, 0x28, 0xbe, 0xf8, 0x4b, 0x87, 0xbe,
  0x39, 0x93, 0x1c, 0xbe, 0xda, 0x20, 0x9e, 0x3e, 0xb4, 0x1f, 0x9f, 0xbd,
  0x69, 0xb3, 0x42, 0xbe, 0x36, 0x93, 0x20, 0x3e, 0xa8, 0xd2, 0x82, 0x3e,
  0xec, 0x96, 0x94, 0xbe, 0xdb, 0xc7, 0xcf, 0x3d, 0xcf, 0x70, 0x12, 0x3f,
  0x3d, 0x47, 0xeb, 0xbd, 0x52, 0x30, 0x3c, 0xbd, 0xd6, 0x91, 0x43, 0xbe,
  0x03, 0x26, 0x79, 0xbe, 0x57, 0xec, 0x10, 0x3e, 0xeb, 0x90, 0xda, 0x3e,
  0x5e, 0x7c, 0x81, 0x3e, 0x84, 0xe3, 0x82, 0x3d, 0x3f, 0x74, 0x9a, 0xbe,
  0xd1, 0x86, 0x98, 0xbe, 0x7e, 0x8f, 0x42, 0x3e, 0x04, 0xfa, 0xba, 0x3e,
  0xc1, 0x50, 0x75, 0xbe, 0x66, 0x96, 0xd6, 0xbe, 0xfe, 0x73, 0x3c, 0xbe,
  0x5b, 0x39, 0x29, 0xbe, 0x39, 0x3e, 0x82, 0x3e, 0xa0, 0xd0, 0x6e, 0xbe,
  0x2d, 0xbb, 0xbe, 0xbe, 0x9d, 0x8a, 0x87, 0xbd, 0xb9, 0x8b, 0x7d, 0x3d,
  0x1b, 0x1b, 0x10, 0x3e, 0xe0, 0x56, 0x4b, 0x3e, 0xec, 0xf1, 0xd9, 0xbb,
  0x21, 0xb1, 0x1f, 0xbe, 0x37, 0xb2, 0x48, 0xbd, 0xd9, 0xdd, 0x82, 0xbe,
  0x20, 0x05, 0xb2, 0x3e, 0x70, 0xcc, 0x86, 0xbe, 0x1f, 0xe8, 0x24, 0x3d,
  0x26, 0xe8, 0x52, 0x3e, 0xf8, 0xbd, 0x5b, 0xbd, 0x0f, 0x2a, 0xb8, 0xbd,
  0xb6, 0x21, 0x98, 0x3e, 0xd5, 0x7b, 0x00, 0x3e, 0x63, 0x1d, 0x0f, 0x3e,
  0xf1, 0x69, 0x47, 0x3e, 0xfd, 0xf5, 0xa0, 0xbe, 0xc2, 0xd5, 0x93, 0x3b,
  0x40, 0x96, 0x7e, 0x3e, 0x2d, 0x2c, 0xc2, 0x3e, 0x10, 0xf6, 0x49, 0xbe,
  0xe9, 0xba, 0x55, 0xbe, 0x64, 0x5e, 0x93, 0x3e, 0x5d, 0xe7, 0xa5, 0x3e,
  0x97, 0xa1, 0x27, 0xbb, 0x0d, 0xec, 0x16, 0xbd, 0xd2, 0x3f, 0xd4, 0xbd,
  0x71, 0x8c, 0x1b, 0x3e, 0x6d, 0xdc, 0xa9, 0x3e, 0xc3, 0xff, 0x1c, 0x3f,
  0x1a, 0xce, 0x3f, 0x3e, 0xc1, 0xb4, 0x68, 0x3d, 0x5e, 0x1e, 0x39, 0x3e,
  0x9e, 0x15, 0x53, 0x3d, 0xb2, 0xc0, 0x98, 0x3e, 0x3e, 0x69, 0x28, 0xbe,
  0xab, 0x72, 0x8d, 0x3e, 0x85, 0x1e, 0x53, 0x3e, 0x3e, 0x6e, 0x66, 0xbe,
  0x53, 0xa7, 0x51, 0x3e, 0xae, 0x74, 0xcb, 0xbd, 0x3c, 0x60, 0x11, 0xbe,
  0x9f, 0xcb, 0xed, 0xbe, 0xc6, 0x5e, 0x59, 0xbe, 0xe6, 0x06, 0xc3, 0xbe,
  0x84, 0xf5, 0xa5, 0xbe, 0x62, 0xba, 0xcd, 0x3d, 0xb5, 0x31, 0xb0, 0xbc,
  0x19, 0x4e, 0xbf, 0x3e, 0xda, 0x02, 0xfe, 0xbd, 0xb4, 0x07, 0x8c, 0x3e,
  0xd7, 0x5f, 0xea, 0xbe, 0xea, 0x79, 0x09, 0xbf, 0x28, 0xc7, 0x1a, 0xbf,
  0x73, 0x84, 0x07, 0xbe, 0xbd, 0x96, 0x84, 0xbd, 0x28, 0x5f, 0x68, 0xbe,
  0x16, 0xec, 0xfc, 0x3d, 0xf9, 0x3f, 0x96, 0x3e, 0x78, 0xa8, 0x2e, 0x3e,
  0x6f, 0xd2, 0x8e, 0x3e, 0x37, 0x9d, 0xaa, 0xbd, 0x2c, 0xe5, 0xab, 0x3e,
  0x16, 0xe1, 0x06, 0xbf, 0xe5, 0xb2, 0xb8, 0x3c, 0xb5, 0x5f, 0xb0, 0xbd,
  0xec, 0xcb, 0x0c, 0x3d, 0x5c, 0x74, 0xa7, 0xbe, 0x3f, 0x5e, 0x59, 0x3c,
  0xc0, 0xca, 0x83, 0x3e, 0xba, 0xe6, 0x4f, 0x3c, 0xc8, 0x30, 0x55, 0xbe,
  0x8e, 0x87, 0xd7, 0xbd, 0x85, 0x46, 0x32, 0x3d, 0x32, 0xf0, 0xc9, 0xbe,
  0x66, 0x73, 0x1a, 0xbe, 0x9d, 0x2f, 0xef, 0x3d, 0x6c, 0x1f, 0x67, 0xbd,
  0x4c, 0x93, 0x3c, 0xbe, 0x25, 0x49, 0x82, 0xbd, 0xce, 0x54, 0xec, 0x3d,
  0xf2, 0x82, 0x84, 0xbe, 0x26, 0x54, 0x02, 0xbd, 0xaf, 0xa3, 0x72, 0x3d,
  0xee, 0x6d, 0x8a, 0xbd, 0xc0, 0xe7, 0x84, 0x3e, 0x36, 0xf2, 0x3a, 0xbe,
  0x2c, 0xe1, 0x8a, 0x3e, 0x4c, 0xd7, 0xe0, 0x3e, 0xf2, 0xbf, 0xd6, 0x3e,
  0x81, 0xc4, 0xa9, 0x3c, 0x06, 0x22, 0xc8, 0xbe, 0xba, 0x68, 0x9b, 0xbe,
  0x67, 0xa0, 0xeb, 0x3d, 0x25, 0x5e, 0xab, 0xbe, 0x3f, 0xab, 0x13, 0xbe,
  0x26, 0xbf, 0x04, 0x3e, 0xcf, 0xf0, 0x1b, 0x3e, 0x43, 0x9f, 0x97, 0x3e,
  0xa6, 0xfb, 0x81, 0x3d, 0x9c, 0x5f, 0x28, 0x3e, 0x27, 0x04, 0x67, 0xbe,
  0x3e, 0xf3, 0x74, 0x3e, 0x67, 0xed, 0x2d, 0xbe, 0xba, 0xde, 0x80, 0x3e,
  0x1a, 0x24, 0x1c, 0x3e, 0x49, 0x4c, 0xac, 0x3d, 0x0d, 0x75, 0x02, 0x3f,
  0xa7, 0xe3, 0xbd, 0xbe, 0xe5, 0xbb, 0x14, 0x3e, 0x64, 0xa9, 0x98, 0x3c,
  0x95, 0x58, 0x53, 0x3d, 0xb8, 0xef, 0x84, 0xbe, 0x83, 0xe3, 0x22, 0x3d,
  0x59, 0xd8, 0x28, 0xbe, 0xc8, 0x3b, 0x51, 0xbd, 0xf0, 0xef, 0x41, 0xbd,
  0xa9, 0xe2, 0xc1, 0x3e, 0xea, 0xf9, 0xf2, 0xbe, 0x2b, 0x1f, 0x59, 0xbd,
  0xee, 0x2a, 0x23, 0xbd, 0x11, 0x23, 0x30, 0xbe, 0x37, 0xa4, 0x2d, 0xbc,
  0x9e, 0xd4, 0xab, 0xbd, 0x2b, 0x9b, 0xc2, 0xbe, 0x10, 0x94, 0x56, 0xbe,
  0x6e, 0xf8, 0xba, 0x3e, 0xab, 0x1c, 0x96, 0x3c, 0x57, 0x75, 0x9a, 0xbe,
  0xca, 0xca, 0x0d, 0xbe, 0x23, 0x59, 0xa2, 0xbe, 0x32, 0x31, 0x33, 0x3e,
  0x3e, 0x0f, 0x6f, 0xbe, 0xdc, 0xa4, 0x9d, 0xbe, 0x3a, 0xd4, 0x4e, 0x3d,
  0xe7, 0xa7, 0x67, 0xbe, 0x61, 0xdd, 0x93, 0x3c, 0xcb, 0x01, 0x95, 0x3d,
  0x89, 0x99, 0x06, 0x3e, 0x58, 0x77, 0x4a, 0x3e, 0x8b, 0xa4, 0x1b, 0xbe,
  0x14, 0x44, 0x79, 0x3d, 0x84, 0x98, 0xb1, 0xbe, 0xad, 0x8a, 0x2c, 0xbe,
  0xab, 0x13, 0x33, 0xbd, 0x84, 0xc0, 0x7f, 0xbd, 0xff, 0x70, 0x57, 0x3d,
  0x70, 0x21, 0x84, 0x3e, 0x02, 0xfe, 0xea, 0x3e, 0x09, 0x7a, 0x61, 0xbe,
  0xbb, 0xa1, 0x84, 0xbe, 0x08, 0x19, 0xbf, 0xbe, 0x84, 0x83, 0xa6, 0xbc,
  0x74, 0xec, 0x1c, 0x3e, 0xb2, 0x4a, 0xec, 0x3d, 0xd7, 0x43, 0xc3, 0xbd,
  0x27, 0x9f, 0xf6, 0xbd, 0x45, 0x03, 0x86, 0x3e, 0x5d, 0x5c, 0x4e, 0xbd,
  0xb7, 0x71, 0xe4, 0x3d, 0xe8, 0x95, 0xf9, 0x3e, 0x20, 0xa3, 0xc9, 0x3e,
  0x03, 0x6c, 0x0d, 0xbe, 0xe2, 0x6e, 0xa2, 0x3d, 0x78, 0x0d, 0x60, 0xbe,
  0x41, 0x34, 0xaa, 0xbe, 0xd8, 0x11, 0xc7, 0xbe, 0xfa, 0xe9, 0x4c, 0xbe,
  0xc8, 0xe0, 0x07, 0xbe, 0xc6, 0x7c, 0xb2, 0x3d, 0xdb, 0x66, 0x16, 0x3e,
  0x48, 0x06, 0x94, 0xbe, 0x73, 0x7d, 0xb0, 0x3c, 0xbf, 0x65, 0x9d, 0xbe,
  0x66, 0xfc, 0xff, 0xff, 0x04, 0x00, 0x00, 0x00, 0x00, 0x02, 0x00, 0x00,
  0xbd, 0xad, 0x07, 0x3f, 0x36, 0x1b, 0x09, 0xbf, 0x36, 0xc4, 0xcc, 0x3e,
  0x8b, 0xdd, 0x59, 0x3e, 0xbb, 0x62, 0xb7, 0x3e, 0xc2, 0x0e, 0x8c, 0xbe,
  0x5b, 0x10, 0x10, 0xbe, 0x5d, 0x61, 0x70, 0x3e, 0xc7, 0xe7, 0x5d, 0x3e,
  0xbf, 0xa9, 0xb0, 0xbe, 0x75, 0x99, 0xc3, 0x3d, 0xb1, 0x85, 0x0a, 0xbd,
  0x85, 0xbb, 0xa6, 0x3c, 0xe2, 0x45, 0xff, 0x3e, 0xda, 0x04, 0x16, 0x3e,
  0x6c, 0x30, 0x9e, 0x3e, 0xd2, 0x3c, 0x27, 0xbc, 0x89, 0x27, 0x81, 0xbe,
  0x56, 0x00, 0x05, 0x3f, 0x1e, 0x86, 0xdd, 0x3e, 0x84, 0xdd, 0x8f, 0x3e,
  0x5f, 0x16, 0x20, 0x3f, 0x88, 0xc8, 0x31, 0xbe, 0x7a, 0xae, 0x11, 0x3f,
  0xcd, 0x21, 0x8e, 0x3e, 0x16, 0x13, 0xe4, 0xbd, 0xbe, 0x72, 0x94, 0x3c,
  0xc9, 0xca, 0x8a, 0xbe, 0x41, 0x54, 0x2a, 0xbe, 0x0d, 0xa3, 0xa1, 0xbe,
  0x99, 0xca, 0x12, 0x3f, 0x3a, 0x26, 0xbc, 0xbe, 0x94, 0xbe, 0xb4, 0x3e,
  0x41, 0x64, 0x30, 0x3d, 0x88, 0xbc, 0x89, 0xbe, 0x66, 0x42, 0x20, 0x3b,
  0x2c, 0x74, 0x14, 0xbf, 0xe1, 0x66, 0x25, 0xbd, 0x17, 0x00, 0x98, 0x3e,
  0xb8, 0xa6, 0xcf, 0x3c, 0xe5, 0xe6, 0xb9, 0x3c, 0x08, 0x3e, 0xb8, 0x3e,
  0x14, 0xe8, 0x3e, 0x3f, 0x3d, 0x2e, 0x92, 0xbe, 0xe2, 0x27, 0xfe, 0x3e,
  0x84, 0x37, 0xd9, 0xbe, 0xb7, 0x79, 0xc3, 0xbe, 0x53, 0x5c, 0x34, 0xbd,
  0xa3, 0xcb, 0x25, 0x3e, 0x74, 0x10, 0x9e, 0xbd, 0xdd, 0xea, 0xff, 0xbd,
  0x58, 0xd7, 0x4b, 0xbe, 0x2e, 0xe5, 0x69, 0xbe, 0xbb, 0x12, 0x2d, 0x3f,
  0x3e, 0x07, 0xfe, 0x3e, 0xe1, 0x87, 0x90, 0xbe, 0xe5, 0xcd, 0x28, 0x3a,
  0x99, 0xb8, 0x2e, 0x3f, 0xbd, 0xd0, 0xc5, 0x3e, 0x0b, 0x3d, 0x1d, 0x3f,
  0xca, 0x56, 0xc9, 0x3e, 0x57, 0x57, 0x8d, 0xbd, 0x82, 0x6a, 0xc3, 0x3e,
  0xc6, 0x26, 0x29, 0xbe, 0xbd, 0xbe, 0x0b, 0x3f, 0x62, 0xcb, 0x85, 0x3a,
  0xc5, 0x7f, 0x9d, 0x3e, 0xd8, 0x88, 0x48, 0x3e, 0x7f, 0x2a, 0xb4, 0xbe,
  0x90, 0x1f, 0x20, 0x3d, 0x6e, 0x2a, 0xb2, 0x3e, 0xe9, 0x07, 0x9d, 0x3e,
  0x04, 0x00, 0x1d, 0x3e, 0x2f, 0xbe, 0x1e, 0x3f, 0xe8, 0x81, 0x25, 0x3e,
  0x7a, 0x02, 0xb4, 0xbe, 0x7d, 0x59, 0x1b, 0xbd, 0xf3, 0xda, 0x72, 0x3e,
  0x51, 0x2a, 0xf2, 0xbe, 0xdc, 0x63, 0x3b, 0x3f, 0xa4, 0x48, 0xdb, 0xbe,
  0x6f, 0xf7, 0xa1, 0x3e, 0xc3, 0x2c, 0x39, 0x3f, 0xcb, 0x0d, 0xe1, 0x3d,
  0x71, 0xdd, 0xe0, 0xbe, 0x20, 0x3f, 0x49, 0x3f, 0xff, 0x07, 0x50, 0xbd,
  0xec, 0xb0, 0x5f, 0xbe, 0x9c, 0xca, 0xc9, 0xbe, 0x96, 0xf3, 0x28, 0xbe,
  0xe4, 0xf2, 0x25, 0x3e, 0x1f, 0xfe, 0xb8, 0x3e, 0x80, 0x05, 0x21, 0xbc,
  0x0c, 0x6d, 0xab, 0xbe, 0x2d, 0xb2, 0x96, 0x3e, 0xca, 0x1a, 0xe6, 0xbe,
  0xbb, 0x37, 0xa6, 0x3e, 0x0c, 0x67, 0x6c, 0x3e, 0x1a, 0x99, 0xd8, 0x3d,
  0x04, 0xf3, 0xde, 0xbd, 0x4d, 0x6b, 0x07, 0xbe, 0x52, 0xba, 0xed, 0xbe,
  0xd3, 0xc8, 0x22, 0x3f, 0xb4, 0xb2, 0x1d, 0xbe, 0x12, 0xb1, 0x56, 0x3f,
  0x39, 0x20, 0x86, 0x3c, 0x3c, 0x2b, 0xbe, 0xbe, 0x1f, 0x1a, 0x6e, 0x3e,
  0x19, 0x39, 0xb9, 0x3e, 0xf0, 0x2b, 0x0b, 0xbf, 0xb3, 0xb6, 0x96, 0x3e,
  0x87, 0x40, 0x6f, 0x3d, 0xd9, 0x50, 0x3d, 0x3e, 0xdf, 0xb5, 0x14, 0xbf,
  0xd2, 0xc7, 0x59, 0x3f, 0xd7, 0x17, 0xa2, 0x3e, 0x4c, 0xdd, 0x49, 0xbc,
  0x45, 0x75, 0x85, 0xbe, 0xe3, 0x38, 0x65, 0x3e, 0x52, 0x86, 0x08, 0x3e,
  0x22, 0xe5, 0x4a, 0x3e, 0xd9, 0xd0, 0x2b, 0xbf, 0x3d, 0x16, 0x57, 0x3e,
  0x22, 0x5a, 0xee, 0xbe, 0x93, 0xb7, 0x53, 0xbe, 0xc0, 0x2b, 0xc5, 0xbe,
  0xc3, 0xd8, 0x0a, 0xbe, 0x87, 0x3c, 0x48, 0x3e, 0x72, 0xfe, 0xff, 0xff,
  0x04, 0x00, 0x00, 0x00, 0xa0, 0x00, 0x00, 0x00, 0x71, 0x76, 0xd2, 0x3e,
  0xc7, 0x68, 0xf5, 0x3e, 0xb6, 0xd8, 0x09, 0xbf, 0x53, 0x25, 0x13, 0xbf,
  0x7d, 0xf0, 0x40, 0xbe, 0x30, 0x6f, 0x8e, 0x3e, 0x5e, 0x8a, 0x94, 0x3e,
  0x03, 0x4a, 0x58, 0x3f, 0x94, 0x28, 0x24, 0x3e, 0xe8, 0x40, 0x45, 0xbf,
  0xb3, 0x60, 0x2a, 0xbe, 0x75, 0xfc, 0x91, 0xbe, 0xf5, 0x8f, 0x36, 0x3f,
  0xb4, 0xda, 0x27, 0xbe, 0x08, 0x7e, 0x09, 0x3d, 0x4f, 0x9e, 0x4b, 0xbd,
  0xae, 0xbc, 0x26, 0xbe, 0x1d, 0x11, 0x2a, 0x3e, 0x7f, 0x99, 0x37, 0xbf,
  0x0c, 0x69, 0xb5, 0x3e, 0xbd, 0x16, 0x41, 0xbf, 0x27, 0xbf, 0xf0, 0x3e,
  0xac, 0x12, 0x84, 0xbf, 0x03, 0x8b, 0x03, 0xbe, 0x25, 0x42, 0x3e, 0xbf,
  0x54, 0xce, 0x7b, 0xbf, 0xc6, 0xf6, 0x86, 0x3f, 0x57, 0x34, 0xf9, 0xbc,
  0x39, 0x9b, 0xa1, 0xbe, 0xcf, 0x79, 0xb8, 0x3e, 0xbf, 0xb2, 0x45, 0x3d,
  0x93, 0x2a, 0x91, 0xbe, 0x8a, 0x62, 0x8d, 0xbe, 0x15, 0xbf, 0xe5, 0xbe,
  0x7e, 0xaa, 0x5d, 0xbb, 0x2e, 0x48, 0xd5, 0x3c, 0x80, 0x6e, 0x05, 0xbf,
  0x38, 0x51, 0x8a, 0xbf, 0x10, 0x2c, 0x83, 0x3f, 0x10, 0x4c, 0x53, 0xbf,
  0x1e, 0xff, 0xff, 0xff, 0x04, 0x00, 0x00, 0x00, 0x14, 0x00, 0x00, 0x00,
  0x82, 0x2c, 0xe6, 0xbd, 0x65, 0xa8, 0x18, 0xbe, 0x4e, 0x9b, 0x0f, 0x3e,
  0xfe, 0x75, 0x32, 0x3e, 0x37, 0x48, 0xb5, 0x3b, 0x3e, 0xff, 0xff, 0xff,
  0x04, 0x00, 0x00, 0x00, 0x20, 0x00, 0x00, 0x00, 0x09, 0xea, 0x40, 0xbd,
  0xbf, 0x87, 0x18, 0x3d, 0xa2, 0xea, 0x99, 0x3e, 0x24, 0xf4, 0x1b, 0x3e,
  0xc0, 0x2b, 0xb2, 0xbd, 0x1a, 0x31, 0x86, 0x3e, 0x42, 0x5d, 0x48, 0x3e,
  0x3c, 0x80, 0x8f, 0x3d, 0xec, 0xf9, 0xff, 0xff, 0xf0, 0xf9, 0xff, 0xff,
  0x0f, 0x00, 0x00, 0x00, 0x4d, 0x4c, 0x49, 0x52, 0x20, 0x43, 0x6f, 0x6e,
  0x76, 0x65, 0x72, 0x74, 0x65, 0x64, 0x2e, 0x00, 0x01, 0x00, 0x00, 0x00,
  0x14, 0x00, 0x00, 0x00, 0x00, 0x00, 0x0e, 0x00, 0x18, 0x00, 0x14, 0x00,
  0x10, 0x00, 0x0c, 0x00, 0x08, 0x00, 0x04, 0x00, 0x0e, 0x00, 0x00, 0x00,
  0x14, 0x00, 0x00, 0x00, 0x1c, 0x00, 0x00, 0x00, 0x34, 0x01, 0x00, 0x00,
  0x38, 0x01, 0x00, 0x00, 0x3c, 0x01, 0x00, 0x00, 0x04, 0x00, 0x00, 0x00,
  0x6d, 0x61, 0x69, 0x6e, 0x00, 0x00, 0x00, 0x00, 0x04, 0x00, 0x00, 0x00,
  0xdc, 0x00, 0x00, 0x00, 0x94, 0x00, 0x00, 0x00, 0x50, 0x00, 0x00, 0x00,
  0x14, 0x00, 0x00, 0x00, 0x00, 0x00, 0x0e, 0x00, 0x1a, 0x00, 0x14, 0x00,
  0x10, 0x00, 0x0c, 0x00, 0x0b, 0x00, 0x04, 0x00, 0x0e, 0x00, 0x00, 0x00,
  0x1c, 0x00, 0x00, 0x00, 0x00, 0x00, 0x00, 0x09, 0x1c, 0x00, 0x00, 0x00,
  0x20, 0x00, 0x00, 0x00, 0x01, 0x00, 0x00, 0x00, 0x00, 0x00, 0x06, 0x00,
  0x08, 0x00, 0x04, 0x00, 0x06, 0x00, 0x00, 0x00, 0x00, 0x00, 0x80, 0x3f,
  0x01, 0x00, 0x00, 0x00, 0x0a, 0x00, 0x00, 0x00, 0x01, 0x00, 0x00, 0x00,
  0x09, 0x00, 0x00, 0x00, 0xce, 0xff, 0xff, 0xff, 0x10, 0x00, 0x00, 0x00,
  0x00, 0x00, 0x00, 0x08, 0x0c, 0x00, 0x00, 0x00, 0x10, 0x00, 0x00, 0x00,
  0xb4, 0xfa, 0xff, 0xff, 0x01, 0x00, 0x00, 0x00, 0x09, 0x00, 0x00, 0x00,
  0x03, 0x00, 0x00, 0x00, 0x08, 0x00, 0x00, 0x00, 0x03, 0x00, 0x00, 0x00,
  0x02, 0x00, 0x00, 0x00, 0x00, 0x00, 0x0e, 0x00, 0x14, 0x00, 0x00, 0x00,
  0x10, 0x00, 0x0c, 0x00, 0x0b, 0x00, 0x04, 0x00, 0x0e, 0x00, 0x00, 0x00,
  0x10, 0x00, 0x00, 0x00, 0x00, 0x00, 0x00, 0x08, 0x10, 0x00, 0x00, 0x00,
  0x14, 0x00, 0x00, 0x00, 0xba, 0xff, 0xff, 0xff, 0x00, 0x00, 0x00, 0x01,
  0x01, 0x00, 0x00, 0x00, 0x08, 0x00, 0x00, 0x00, 0x03, 0x00, 0x00, 0x00,
  0x07, 0x00, 0x00, 0x00, 0x04, 0x00, 0x00, 0x00, 0x01, 0x00, 0x00, 0x00,
  0x00, 0x00, 0x0e, 0x00, 0x16, 0x00, 0x00, 0x00, 0x10, 0x00, 0x0c, 0x00,
  0x0b, 0x00, 0x04, 0x00, 0x0e, 0x00, 0x00, 0x00, 0x18, 0x00, 0x00, 0x00,
  0x00, 0x00, 0x00, 0x08, 0x18, 0x00, 0x00, 0x00, 0x1c, 0x00, 0x00, 0x00,
  0x00, 0x00, 0x06, 0x00, 0x08, 0x00, 0x07, 0x00, 0x06, 0x00, 0x00, 0x00,
  0x00, 0x00, 0x00, 0x01, 0x01, 0x00, 0x00, 0x00, 0x07, 0x00, 0x00, 0x00,
  0x03, 0x00, 0x00, 0x00, 0x00, 0x00, 0x00, 0x00, 0x05, 0x00, 0x00, 0x00,
  0x06, 0x00, 0x00, 0x00, 0x01, 0x00, 0x00, 0x00, 0x0a, 0x00, 0x00, 0x00,
  0x01, 0x00, 0x00, 0x00, 0x00, 0x00, 0x00, 0x00, 0x0b, 0x00, 0x00, 0x00,
  0x64, 0x04, 0x00, 0x00, 0xe4, 0x03, 0x00, 0x00, 0x7c, 0x03, 0x00, 0x00,
  0x28, 0x03, 0x00, 0x00, 0xd8, 0x02, 0x00, 0x00, 0x88, 0x02, 0x00, 0x00,
  0x20, 0x02, 0x00, 0x00, 0x84, 0x01, 0x00, 0x00, 0xe8, 0x00, 0x00, 0x00,
  0x60, 0x00, 0x00, 0x00, 0x04, 0x00, 0x00, 0x00, 0xde, 0xfb, 0xff, 0xff,
  0x00, 0x00, 0x00, 0x01, 0x14, 0x00, 0x00, 0x00, 0x1c, 0x00, 0x00, 0x00,
  0x1c, 0x00, 0x00, 0x00, 0x0b, 0x00, 0x00, 0x00, 0x34, 0x00, 0x00, 0x00,
  0x02, 0x00, 0x00, 0x00, 0xff, 0xff, 0xff, 0xff, 0x05, 0x00, 0x00, 0x00,
  0xc8, 0xfb, 0xff, 0xff, 0x1b, 0x00, 0x00, 0x00, 0x53, 0x74, 0x61, 0x74,
  0x65, 0x66, 0x75, 0x6c, 0x50, 0x61, 0x72, 0x74, 0x69, 0x74, 0x69, 0x6f,
  0x6e, 0x65, 0x64, 0x43, 0x61, 0x6c, 0x6c, 0x5f, 0x31, 0x3a, 0x30, 0x00,
  0x02, 0x00, 0x00, 0x00, 0x01, 0x00, 0x00, 0x00, 0x05, 0x00, 0x00, 0x00,
  0x36, 0xfc, 0xff, 0xff, 0x00, 0x00, 0x00, 0x01, 0x14, 0x00, 0x00, 0x00,
  0x1c, 0x00, 0x00, 0x00, 0x1c, 0x00, 0x00, 0x00, 0x0a, 0x00, 0x00, 0x00,
  0x60, 0x00, 0x00, 0x00, 0x02, 0x00, 0x00, 0x00, 0xff, 0xff, 0xff, 0xff,
  0x05, 0x00, 0x00, 0x00, 0x20, 0xfc, 0xff, 0xff, 0x46, 0x00, 0x00, 0x00,
  0x73, 0x65, 0x71, 0x75, 0x65, 0x6e, 0x74, 0x69, 0x61, 0x6c, 0x5f, 0x31,
  0x2f, 0x6f, 0x75, 0x74, 0x70, 0x75, 0x74, 0x5f, 0x6c, 0x61, 0x79, 0x65,
  0x72, 0x5f, 0x31, 0x2f, 0x4d, 0x61, 0x74, 0x4d, 0x75, 0x6c, 0x3b, 0x73,
  0x65, 0x71, 0x75, 0x65, 0x6e, 0x74, 0x69, 0x61, 0x6c, 0x5f, 0x31, 0x2f,
  0x6f, 0x75, 0x74, 0x70, 0x75, 0x74, 0x5f, 0x6c, 0x61, 0x79, 0x65, 0x72,
  0x5f, 0x31, 0x2f, 0x42, 0x69, 0x61, 0x73, 0x41, 0x64, 0x64, 0x00, 0x00,
  0x02, 0x00, 0x00, 0x00, 0x01, 0x00, 0x00, 0x00, 0x05, 0x00, 0x00, 0x00,
  0xba, 0xfc, 0xff, 0xff, 0x00, 0x00, 0x00, 0x01, 0x14, 0x00, 0x00, 0x00,
  0x1c, 0x00, 0x00, 0x00, 0x1c, 0x00, 0x00, 0x00, 0x09, 0x00, 0x00, 0x00,
  0x74, 0x00, 0x00, 0x00, 0x02, 0x00, 0x00, 0x00, 0xff, 0xff, 0xff, 0xff,
  0x08, 0x00, 0x00, 0x00, 0xa4, 0xfc, 0xff, 0xff, 0x58, 0x00, 0x00, 0x00,
  0x73, 0x65, 0x71, 0x75, 0x65, 0x6e, 0x74, 0x69, 0x61, 0x6c, 0x5f, 0x31,
  0x2f, 0x64, 0x65, 0x6e, 0x73, 0x65, 0x5f, 0x32, 0x5f, 0x31, 0x2f, 0x4d,
  0x61, 0x74, 0x4d, 0x75, 0x6c, 0x3b, 0x73, 0x65, 0x71, 0x75, 0x65, 0x6e,
  0x74, 0x69, 0x61, 0x6c, 0x5f, 0x31, 0x2f, 0x64, 0x65, 0x6e, 0x73, 0x65,
  0x5f, 0x32, 0x5f, 0x31, 0x2f, 0x52, 0x65, 0x6c, 0x75, 0x3b, 0x73, 0x65,
  0x71, 0x75, 0x65, 0x6e, 0x74, 0x69, 0x61, 0x6c, 0x5f, 0x31, 0x2f, 0x64,
  0x65, 0x6e, 0x73, 0x65, 0x5f, 0x32, 0x5f, 0x31, 0x2f, 0x42, 0x69, 0x61,
  0x73, 0x41, 0x64, 0x64, 0x00, 0x00, 0x00, 0x00, 0x02, 0x00, 0x00, 0x00,
  0x01, 0x00, 0x00, 0x00, 0x08, 0x00, 0x00, 0x00, 0x52, 0xfd, 0xff, 0xff,
  0x00, 0x00, 0x00, 0x01, 0x14, 0x00, 0x00, 0x00, 0x1c, 0x00, 0x00, 0x00,
  0x1c, 0x00, 0x00, 0x00, 0x08, 0x00, 0x00, 0x00, 0x74, 0x00, 0x00, 0x00,
  0x02, 0x00, 0x00, 0x00, 0xff, 0xff, 0xff, 0xff, 0x10, 0x00, 0x00, 0x00,
  0x3c, 0xfd, 0xff, 0xff, 0x58, 0x00, 0x00, 0x00, 0x73, 0x65, 0x71, 0x75,
  0x65, 0x6e, 0x74, 0x69, 0x61, 0x6c, 0x5f, 0x31, 0x2f, 0x64, 0x65, 0x6e,
  0x73, 0x65, 0x5f, 0x31, 0x5f, 0x31, 0x2f, 0x4d, 0x61, 0x74, 0x4d, 0x75,
  0x6c, 0x3b, 0x73, 0x65, 0x71, 0x75, 0x65, 0x6e, 0x74, 0x69, 0x61, 0x6c,
  0x5f, 0x31, 0x2f, 0x64, 0x65, 0x6e, 0x73, 0x65, 0x5f, 0x31, 0x5f, 0x31,
  0x2f, 0x52, 0x65, 0x6c, 0x75, 0x3b, 0x73, 0x65, 0x71, 0x75, 0x65, 0x6e,
  0x74, 0x69, 0x61, 0x6c, 0x5f, 0x31, 0x2f, 0x64, 0x65, 0x6e, 0x73, 0x65,
  0x5f, 0x31, 0x5f, 0x31, 0x2f, 0x42, 0x69, 0x61, 0x73, 0x41, 0x64, 0x64,
  0x00, 0x00, 0x00, 0x00, 0x02, 0x00, 0x00, 0x00, 0x01, 0x00, 0x00, 0x00,
  0x10, 0x00, 0x00, 0x00, 0x66, 0xfe, 0xff, 0xff, 0x00, 0x00, 0x00, 0x01,
  0x10, 0x00, 0x00, 0x00, 0x10, 0x00, 0x00, 0x00, 0x07, 0x00, 0x00, 0x00,
  0x48, 0x00, 0x00, 0x00, 0xc4, 0xfd, 0xff, 0xff, 0x3a, 0x00, 0x00, 0x00,
  0x73, 0x65, 0x71, 0x75, 0x65, 0x6e, 0x74, 0x69, 0x61, 0x6c, 0x5f, 0x31,
  0x2f, 0x64, 0x65, 0x6e, 0x73, 0x65, 0x5f, 0x31, 0x5f, 0x31, 0x2f, 0x52,
  0x65, 0x6c, 0x75, 0x3b, 0x73, 0x65, 0x71, 0x75, 0x65, 0x6e, 0x74, 0x69,
  0x61, 0x6c, 0x5f, 0x31, 0x2f, 0x64, 0x65, 0x6e, 0x73, 0x65, 0x5f, 0x31,
  0x5f, 0x31, 0x2f, 0x42, 0x69, 0x61, 0x73, 0x41, 0x64, 0x64, 0x00, 0x00,
  0x01, 0x00, 0x00, 0x00, 0x10, 0x00, 0x00, 0x00, 0xca, 0xfe, 0xff, 0xff,
  0x00, 0x00, 0x00, 0x01, 0x10, 0x00, 0x00, 0x00, 0x10, 0x00, 0x00, 0x00,
  0x06, 0x00, 0x00, 0x00, 0x2c, 0x00, 0x00, 0x00, 0x28, 0xfe, 0xff, 0xff,
  0x1d, 0x00, 0x00, 0x00, 0x73, 0x65, 0x71, 0x75, 0x65, 0x6e, 0x74, 0x69,
  0x61, 0x6c, 0x5f, 0x31, 0x2f, 0x64, 0x65, 0x6e, 0x73, 0x65, 0x5f, 0x31,
  0x5f, 0x31, 0x2f, 0x4d, 0x61, 0x74, 0x4d, 0x75, 0x6c, 0x00, 0x00, 0x00,
  0x02, 0x00, 0x00, 0x00, 0x10, 0x00, 0x00, 0x00, 0x24, 0x00, 0x00, 0x00,
  0x16, 0xff, 0xff, 0xff, 0x00, 0x00, 0x00, 0x01, 0x10, 0x00, 0x00, 0x00,
  0x10, 0x00, 0x00, 0x00, 0x05, 0x00, 0x00, 0x00, 0x2c, 0x00, 0x00, 0x00,
  0x74, 0xfe, 0xff, 0xff, 0x1d, 0x00, 0x00, 0x00, 0x73, 0x65, 0x71, 0x75,
  0x65, 0x6e, 0x74, 0x69, 0x61, 0x6c, 0x5f, 0x31, 0x2f, 0x64, 0x65, 0x6e,
  0x73, 0x65, 0x5f, 0x32, 0x5f, 0x31, 0x2f, 0x4d, 0x61, 0x74, 0x4d, 0x75,
  0x6c, 0x00, 0x00, 0x00, 0x02, 0x00, 0x00, 0x00, 0x08, 0x00, 0x00, 0x00,
  0x10, 0x00, 0x00, 0x00, 0x62, 0xff, 0xff, 0xff, 0x00, 0x00, 0x00, 0x01,
  0x10, 0x00, 0x00, 0x00, 0x10, 0x00, 0x00, 0x00, 0x04, 0x00, 0x00, 0x00,
  0x30, 0x00, 0x00, 0x00, 0xc0, 0xfe, 0xff, 0xff, 0x22, 0x00, 0x00, 0x00,
  0x73, 0x65, 0x71, 0x75, 0x65, 0x6e, 0x74, 0x69, 0x61, 0x6c, 0x5f, 0x31,
  0x2f, 0x6f, 0x75, 0x74, 0x70, 0x75, 0x74, 0x5f, 0x6c, 0x61, 0x79, 0x65,
  0x72, 0x5f, 0x31, 0x2f, 0x4d, 0x61, 0x74, 0x4d, 0x75, 0x6c, 0x00, 0x00,
  0x02, 0x00, 0x00, 0x00, 0x05, 0x00, 0x00, 0x00, 0x08, 0x00, 0x00, 0x00,
  0xb2, 0xff, 0xff, 0xff, 0x00, 0x00, 0x00, 0x01, 0x10, 0x00, 0x00, 0x00,
  0x10, 0x00, 0x00, 0x00, 0x03, 0x00, 0x00, 0x00, 0x30, 0x00, 0x00, 0x00,
  0x10, 0xff, 0xff, 0xff, 0x23, 0x00, 0x00, 0x00, 0x73, 0x65, 0x71, 0x75,
  0x65, 0x6e, 0x74, 0x69, 0x61, 0x6c, 0x5f, 0x31, 0x2f, 0x6f, 0x75, 0x74,
  0x70, 0x75, 0x74, 0x5f, 0x6c, 0x61, 0x79, 0x65, 0x72, 0x5f, 0x31, 0x2f,
  0x42, 0x69, 0x61, 0x73, 0x41, 0x64, 0x64, 0x00, 0x01, 0x00, 0x00, 0x00,
  0x05, 0x00, 0x00, 0x00, 0x00, 0x00, 0x16, 0x00, 0x18, 0x00, 0x14, 0x00,
  0x00, 0x00, 0x10, 0x00, 0x0c, 0x00, 0x08, 0x00, 0x00, 0x00, 0x00, 0x00,
  0x00, 0x00, 0x07, 0x00, 0x16, 0x00, 0x00, 0x00, 0x00, 0x00, 0x00, 0x01,
  0x10, 0x00, 0x00, 0x00, 0x10, 0x00, 0x00, 0x00, 0x02, 0x00, 0x00, 0x00,
  0x48, 0x00, 0x00, 0x00, 0x74, 0xff, 0xff, 0xff, 0x3a, 0x00, 0x00, 0x00,
  0x73, 0x65, 0x71, 0x75, 0x65, 0x6e, 0x74, 0x69, 0x61, 0x6c, 0x5f, 0x31,
  0x2f, 0x64, 0x65, 0x6e, 0x73, 0x65, 0x5f, 0x32, 0x5f, 0x31, 0x2f, 0x52,
  0x65, 0x6c, 0x75, 0x3b, 0x73, 0x65, 0x71, 0x75, 0x65, 0x6e, 0x74, 0x69,
  0x61, 0x6c, 0x5f, 0x31, 0x2f, 0x64, 0x65, 0x6e, 0x73, 0x65, 0x5f, 0x32,
  0x5f, 0x31, 0x2f, 0x42, 0x69, 0x61, 0x73, 0x41, 0x64, 0x64, 0x00, 0x00,
  0x01, 0x00, 0x00, 0x00, 0x08, 0x00, 0x00, 0x00, 0x00, 0x00, 0x16, 0x00,
  0x1c, 0x00, 0x18, 0x00, 0x00, 0x00, 0x14, 0x00, 0x10, 0x00, 0x0c, 0x00,
  0x00, 0x00, 0x00, 0x00, 0x08, 0x00, 0x07, 0x00, 0x16, 0x00, 0x00, 0x00,
  0x00, 0x00, 0x00, 0x01, 0x14, 0x00, 0x00, 0x00, 0x20, 0x00, 0x00, 0x00,
  0x20, 0x00, 0x00, 0x00, 0x01, 0x00, 0x00, 0x00, 0x3c, 0x00, 0x00, 0x00,
  0x02, 0x00, 0x00, 0x00, 0xff, 0xff, 0xff, 0xff, 0x24, 0x00, 0x00, 0x00,
  0x04, 0x00, 0x04, 0x00, 0x04, 0x00, 0x00, 0x00, 0x1d, 0x00, 0x00, 0x00,
  0x73, 0x65, 0x72, 0x76, 0x69, 0x6e, 0x67, 0x5f, 0x64, 0x65, 0x66, 0x61,
  0x75, 0x6c, 0x74, 0x5f, 0x69, 0x6e, 0x70, 0x75, 0x74, 0x5f, 0x6c, 0x61,
  0x79, 0x65, 0x72, 0x3a, 0x30, 0x00, 0x00, 0x00, 0x02, 0x00, 0x00, 0x00,
  0x01, 0x00, 0x00, 0x00, 0x24, 0x00, 0x00, 0x00, 0x02, 0x00, 0x00, 0x00,
  0x20, 0x00, 0x00, 0x00, 0x04, 0x00, 0x00, 0x00, 0xf4, 0xff, 0xff, 0xff,
  0x19, 0x00, 0x00, 0x00, 0x00, 0x00, 0x00, 0x19, 0x0c, 0x00, 0x0c, 0x00,
  0x0b, 0x00, 0x00, 0x00, 0x00, 0x00, 0x04, 0x00, 0x0c, 0x00, 0x00, 0x00,
  0x09, 0x00, 0x00, 0x00, 0x00, 0x00, 0x00, 0x09
};

#endif // MODEL_DATA_H
