// File ini dihasilkan secara otomatis dari hasil pelatihan model MLP Keras.
// Konfigurasi: 36 input fitur, 5 kelas output.

#ifndef MODEL_DATA_H
#define MODEL_DATA_H

// Ukuran file model.tflite dalam byte
const unsigned int g_model_len = 5340;

// Byte array representasi biner model TFLite Micro
const unsigned char g_model[] alignas(16) = {
  0x1c, 0x00, 0x00, 0x00, 0x54, 0x46, 0x4c, 0x33, 0x14, 0x00, 0x20, 0x00,
  0x1c, 0x00, 0x18, 0x00, 0x14, 0x00, 0x10, 0x00, 0x0c, 0x00, 0x00, 0x00,
  0x08, 0x00, 0x04, 0x00, 0x14, 0x00, 0x00, 0x00, 0x1c, 0x00, 0x00, 0x00,
  0x94, 0x00, 0x00, 0x00, 0xec, 0x00, 0x00, 0x00, 0x20, 0x0e, 0x00, 0x00,
  0x30, 0x0e, 0x00, 0x00, 0x78, 0x14, 0x00, 0x00, 0x03, 0x00, 0x00, 0x00,
  0x01, 0x00, 0x00, 0x00, 0x10, 0x00, 0x00, 0x00, 0x00, 0x00, 0x0a, 0x00,
  0x10, 0x00, 0x0c, 0x00, 0x08, 0x00, 0x04, 0x00, 0x0a, 0x00, 0x00, 0x00,
  0x0c, 0x00, 0x00, 0x00, 0x1c, 0x00, 0x00, 0x00, 0x3c, 0x00, 0x00, 0x00,
  0x0f, 0x00, 0x00, 0x00, 0x73, 0x65, 0x72, 0x76, 0x69, 0x6e, 0x67, 0x5f,
  0x64, 0x65, 0x66, 0x61, 0x75, 0x6c, 0x74, 0x00, 0x01, 0x00, 0x00, 0x00,
  0x04, 0x00, 0x00, 0x00, 0x94, 0xff, 0xff, 0xff, 0x0a, 0x00, 0x00, 0x00,
  0x04, 0x00, 0x00, 0x00, 0x08, 0x00, 0x00, 0x00, 0x6f, 0x75, 0x74, 0x70,
  0x75, 0x74, 0x5f, 0x30, 0x00, 0x00, 0x00, 0x00, 0x01, 0x00, 0x00, 0x00,
  0x04, 0x00, 0x00, 0x00, 0xc6, 0xf1, 0xff, 0xff, 0x04, 0x00, 0x00, 0x00,
  0x0b, 0x00, 0x00, 0x00, 0x69, 0x6e, 0x70, 0x75, 0x74, 0x5f, 0x6c, 0x61,
  0x79, 0x65, 0x72, 0x00, 0x02, 0x00, 0x00, 0x00, 0x34, 0x00, 0x00, 0x00,
  0x04, 0x00, 0x00, 0x00, 0xdc, 0xff, 0xff, 0xff, 0x0d, 0x00, 0x00, 0x00,
  0x04, 0x00, 0x00, 0x00, 0x13, 0x00, 0x00, 0x00, 0x43, 0x4f, 0x4e, 0x56,
  0x45, 0x52, 0x53, 0x49, 0x4f, 0x4e, 0x5f, 0x4d, 0x45, 0x54, 0x41, 0x44,
  0x41, 0x54, 0x41, 0x00, 0x08, 0x00, 0x0c, 0x00, 0x08, 0x00, 0x04, 0x00,
  0x08, 0x00, 0x00, 0x00, 0x0c, 0x00, 0x00, 0x00, 0x04, 0x00, 0x00, 0x00,
  0x13, 0x00, 0x00, 0x00, 0x6d, 0x69, 0x6e, 0x5f, 0x72, 0x75, 0x6e, 0x74,
  0x69, 0x6d, 0x65, 0x5f, 0x76, 0x65, 0x72, 0x73, 0x69, 0x6f, 0x6e, 0x00,
  0x0e, 0x00, 0x00, 0x00, 0x30, 0x0d, 0x00, 0x00, 0x28, 0x0d, 0x00, 0x00,
  0xf8, 0x0c, 0x00, 0x00, 0xd4, 0x0c, 0x00, 0x00, 0x24, 0x0c, 0x00, 0x00,
  0x14, 0x0a, 0x00, 0x00, 0x04, 0x01, 0x00, 0x00, 0xb4, 0x00, 0x00, 0x00,
  0xac, 0x00, 0x00, 0x00, 0xa4, 0x00, 0x00, 0x00, 0x9c, 0x00, 0x00, 0x00,
  0x94, 0x00, 0x00, 0x00, 0x74, 0x00, 0x00, 0x00, 0x04, 0x00, 0x00, 0x00,
  0x76, 0xf2, 0xff, 0xff, 0x04, 0x00, 0x00, 0x00, 0x60, 0x00, 0x00, 0x00,
  0x10, 0x00, 0x00, 0x00, 0x00, 0x00, 0x00, 0x00, 0x08, 0x00, 0x0e, 0x00,
  0x08, 0x00, 0x04, 0x00, 0x08, 0x00, 0x00, 0x00, 0x10, 0x00, 0x00, 0x00,
  0x24, 0x00, 0x00, 0x00, 0x00, 0x00, 0x06, 0x00, 0x08, 0x00, 0x04, 0x00,
  0x06, 0x00, 0x00, 0x00, 0x04, 0x00, 0x00, 0x00, 0x00, 0x00, 0x00, 0x00,
  0x0c, 0x00, 0x18, 0x00, 0x14, 0x00, 0x10, 0x00, 0x0c, 0x00, 0x04, 0x00,
  0x0c, 0x00, 0x00, 0x00, 0x22, 0x05, 0xe5, 0xec, 0x9f, 0x40, 0x81, 0x09,
  0x02, 0x00, 0x00, 0x00, 0x02, 0x00, 0x00, 0x00, 0x04, 0x00, 0x00, 0x00,
  0x06, 0x00, 0x00, 0x00, 0x32, 0x2e, 0x32, 0x31, 0x2e, 0x30, 0x00, 0x00,
  0xe2, 0xf2, 0xff, 0xff, 0x04, 0x00, 0x00, 0x00, 0x10, 0x00, 0x00, 0x00,
  0x31, 0x2e, 0x35, 0x2e, 0x30, 0x00, 0x00, 0x00, 0x00, 0x00, 0x00, 0x00,
  0x00, 0x00, 0x00, 0x00, 0x64, 0xed, 0xff, 0xff, 0x68, 0xed, 0xff, 0xff,
  0x6c, 0xed, 0xff, 0xff, 0x70, 0xed, 0xff, 0xff, 0x0e, 0xf3, 0xff, 0xff,
  0x04, 0x00, 0x00, 0x00, 0x40, 0x00, 0x00, 0x00, 0x3c, 0xfd, 0x11, 0x3e,
  0x22, 0xee, 0x37, 0x3e, 0x06, 0xc3, 0x5a, 0x3e, 0x4c, 0x64, 0xc1, 0x3d,
  0x6a, 0x7d, 0x36, 0xbd, 0x39, 0x75, 0x82, 0x3e, 0x30, 0xcb, 0x68, 0x3e,
  0xa7, 0x4c, 0xc5, 0x3d, 0xf1, 0x89, 0x93, 0x3d, 0xc3, 0x78, 0x1d, 0x3e,
  0x10, 0x6b, 0x0c, 0x3e, 0xb2, 0x19, 0x19, 0x3d, 0x67, 0x40, 0x16, 0x3e,
  0x12, 0x7c, 0xae, 0xbd, 0xc1, 0x05, 0x32, 0x3e, 0x0f, 0xfa, 0xc3, 0x3d,
  0x5a, 0xf3, 0xff, 0xff, 0x04, 0x00, 0x00, 0x00, 0x00, 0x09, 0x00, 0x00,
  0x08, 0x88, 0xa2, 0x3c, 0xd4, 0xf4, 0x22, 0x3e, 0x09, 0x6a, 0x63, 0x3e,
  0x84, 0x39, 0x86, 0x3e, 0x37, 0xe1, 0x53, 0x3e, 0x5e, 0xf9, 0x2c, 0x3c,
  0x14, 0xbd, 0x92, 0xbe, 0x0f, 0xd2, 0x36, 0x3e, 0x14, 0xb0, 0x0d, 0xbe,
  0xf8, 0xed, 0x4b, 0x3d, 0xa4, 0x70, 0x69, 0x3e, 0x50, 0xbe, 0x2c, 0x3e,
  0x79, 0x5f, 0x61, 0x3e, 0x40, 0x92, 0x67, 0xbd, 0x58, 0x84, 0x63, 0xbe,
  0xf3, 0xea, 0x22, 0xbd, 0x3c, 0x92, 0xef, 0x3d, 0x7e, 0xcf, 0x32, 0x3d,
  0x41, 0xdb, 0xf2, 0xbd, 0x30, 0xfd, 0x38, 0x3e, 0xf2, 0x9a, 0xd6, 0x3d,
  0x8c, 0x43, 0x0f, 0x3d, 0x0f, 0x71, 0xd4, 0x3d, 0x98, 0xb3, 0xab, 0x3d,
  0xe2, 0x0e, 0x33, 0x3e, 0xdc, 0xa8, 0xbf, 0xbd, 0xbe, 0xdf, 0xc8, 0x3e,
  0x0d, 0x1d, 0xb0, 0xbc, 0xb6, 0xd8, 0x8b, 0x3b, 0xf7, 0x86, 0xc6, 0xbe,
  0xfb, 0x8e, 0x2a, 0xbd, 0xe7, 0xfd, 0x43, 0x3e, 0x2e, 0x87, 0x59, 0xbd,
  0x54, 0xb4, 0x9a, 0x3e, 0xc7, 0x2d, 0xcb, 0x3e, 0xfc, 0x52, 0xda, 0x3e,
  0xb2, 0x95, 0x73, 0x3e, 0x2f, 0xc9, 0x0f, 0xbf, 0xa3, 0x0b, 0x4c, 0x3e,
  0x2b, 0xb5, 0x88, 0xbe, 0x4c, 0xf8, 0x15, 0xbf, 0xb6, 0xdf, 0x7c, 0x3d,
  0x0c, 0x45, 0xfb, 0xbe, 0x9c, 0x88, 0x9c, 0x3e, 0xbd, 0xba, 0x33, 0xbe,
  0x97, 0x3c, 0x60, 0xbe, 0x4f, 0x38, 0x40, 0x3d, 0x46, 0x60, 0xbe, 0x3d,
  0xe6, 0xa5, 0x8c, 0x3c, 0x97, 0x37, 0xdb, 0x3e, 0x7e, 0x5d, 0x53, 0xbe,
  0xa4, 0x6e, 0x97, 0x3e, 0x6c, 0xa6, 0x4b, 0x3e, 0x2b, 0x9a, 0xcf, 0xbe,
  0x88, 0x25, 0x99, 0xbe, 0x31, 0xed, 0xa4, 0x3d, 0xed, 0xdc, 0xb5, 0xbe,
  0x6c, 0x63, 0xfc, 0x3e, 0x88, 0xbc, 0xb9, 0x3e, 0x9a, 0xf4, 0xab, 0x3e,
  0x4b, 0xc2, 0x99, 0xbe, 0x85, 0xd8, 0x32, 0x3e, 0xc7, 0x7f, 0x93, 0x3d,
  0x8f, 0xa4, 0xd8, 0xbd, 0x16, 0x72, 0xf5, 0xbd, 0x52, 0x60, 0x8d, 0xbc,
  0x30, 0x23, 0x80, 0xbd, 0xdd, 0x3d, 0x7e, 0xbe, 0xdb, 0xe3, 0x92, 0xbd,
  0x61, 0xf7, 0xb2, 0xbe, 0xc6, 0x0e, 0xbe, 0xbe, 0x7f, 0xff, 0x27, 0xbe,
  0x07, 0x14, 0x64, 0xbe, 0x0d, 0x60, 0xc2, 0x3e, 0x3e, 0x21, 0x16, 0x3e,
  0xe3, 0x98, 0xe9, 0x3b, 0x60, 0x5e, 0xac, 0x3e, 0xb0, 0x8a, 0x56, 0xbe,
  0x97, 0x98, 0x9c, 0xbe, 0x8e, 0x5d, 0xba, 0xbe, 0x0e, 0xc8, 0x8c, 0xbe,
  0x32, 0x3c, 0xa1, 0xbd, 0x81, 0xd6, 0x94, 0xbe, 0xa3, 0x64, 0xa7, 0xbe,
  0x01, 0xce, 0xa1, 0xbe, 0x1b, 0x9e, 0x43, 0x3d, 0x96, 0xa5, 0xb3, 0xbe,
  0x82, 0x9e, 0x73, 0xbe, 0x90, 0xc2, 0x6f, 0xbe, 0x7c, 0x80, 0xe5, 0x3e,
  0xb8, 0x95, 0xbb, 0xbd, 0xff, 0xe2, 0xdb, 0xbd, 0xd5, 0x85, 0xad, 0x3e,
  0xe3, 0xe4, 0x92, 0xbe, 0xa3, 0x70, 0x5d, 0xbe, 0x9f, 0x4f, 0xf5, 0xbe,
  0x35, 0x9e, 0x15, 0xbe, 0x04, 0x03, 0xa9, 0x3e, 0x2d, 0xd8, 0x6b, 0x3e,
  0x2b, 0x38, 0xb1, 0x3e, 0x3a, 0x5f, 0x9f, 0x3e, 0xb8, 0x75, 0x77, 0x3e,
  0x38, 0x41, 0x46, 0xbe, 0x1b, 0x86, 0xa0, 0xbe, 0x50, 0xca, 0xb3, 0x3e,
  0x83, 0xf8, 0xbc, 0xbe, 0x42, 0xbc, 0x88, 0xbc, 0x9f, 0x9e, 0x2e, 0xbe,
  0xdc, 0xed, 0x88, 0x3e, 0x4b, 0xc0, 0xc3, 0xbe, 0xa5, 0xb1, 0x4c, 0xbe,
  0x98, 0x04, 0x45, 0xbe, 0xef, 0x38, 0xa8, 0xbd, 0x64, 0x0a, 0xa4, 0x3e,
  0xa3, 0x18, 0x8f, 0xbe, 0x35, 0x19, 0xbe, 0xbd, 0xea, 0xfa, 0x0a, 0xbf,
  0x41, 0x6a, 0xb5, 0xbe, 0x57, 0xcd, 0x08, 0xbe, 0xda, 0x1b, 0x86, 0xbb,
  0x95, 0xdb, 0xef, 0x3e, 0x93, 0x87, 0x8e, 0xbe, 0xaa, 0x26, 0x9d, 0x3e,
  0xef, 0x0e, 0xda, 0x3e, 0x28, 0x1f, 0xf2, 0xbe, 0x57, 0xbd, 0xa0, 0xbe,
  0x1a, 0xd2, 0x38, 0xbe, 0x4c, 0x68, 0x5e, 0xbe, 0xc5, 0xfd, 0x7b, 0x3e,
  0x91, 0x45, 0x8b, 0x3e, 0x8a, 0x8a, 0x1b, 0xbd, 0xbb, 0x3a, 0x0c, 0xbe,
  0x85, 0xfc, 0x2a, 0x3e, 0x5c, 0x05, 0x0d, 0xbf, 0xea, 0x21, 0x00, 0x3e,
  0xf8, 0x43, 0x72, 0xbe, 0x64, 0x6c, 0x91, 0xbe, 0x96, 0xed, 0xfc, 0xbe,
  0xc3, 0xd6, 0x8c, 0x3e, 0x84, 0x9f, 0x42, 0xbe, 0x41, 0x68, 0xb1, 0x3e,
  0x36, 0xee, 0x8a, 0xbe, 0x6e, 0x7a, 0xa1, 0xbd, 0x72, 0xcd, 0x5f, 0x3d,
  0x98, 0xbb, 0xba, 0xbb, 0xe9, 0x64, 0xf3, 0x3e, 0xf9, 0xec, 0x89, 0xbe,
  0x58, 0x52, 0xbd, 0xbe, 0x75, 0x08, 0xd5, 0x3e, 0xd5, 0xab, 0x5c, 0x3e,
  0xff, 0xdd, 0x0a, 0xbe, 0x77, 0x12, 0x6a, 0x3e, 0xcc, 0xce, 0xc7, 0x3d,
  0x39, 0x17, 0xca, 0xbd, 0xe8, 0x24, 0xa3, 0xbe, 0x81, 0xe5, 0x3c, 0xbc,
  0x44, 0xbd, 0xed, 0xbd, 0x90, 0x06, 0xcd, 0xbd, 0xd2, 0xe3, 0x85, 0x3d,
  0x22, 0x94, 0xf4, 0x3d, 0x45, 0xff, 0x06, 0xbe, 0x7f, 0xd7, 0xe3, 0xbd,
  0x91, 0xa9, 0x1c, 0x3e, 0x3d, 0xf0, 0x85, 0x3e, 0xf7, 0x32, 0x67, 0x3e,
  0xba, 0x3f, 0xd4, 0xbd, 0x57, 0x77, 0x56, 0xbc, 0x6f, 0xa5, 0xde, 0x3d,
  0x84, 0xfd, 0x41, 0x3c, 0x51, 0xec, 0x75, 0xbd, 0x93, 0x10, 0xa6, 0x3d,
  0x8a, 0x13, 0x5d, 0x3e, 0x83, 0x1c, 0x46, 0x3e, 0xe1, 0x76, 0x79, 0xbd,
  0x43, 0x74, 0xff, 0x3d, 0x7d, 0xf5, 0x15, 0x3f, 0xb5, 0x80, 0x24, 0xbe,
  0x37, 0x5e, 0x83, 0x3e, 0xe6, 0x0c, 0x6d, 0x3e, 0xe3, 0xe8, 0xe9, 0xbc,
  0x49, 0x88, 0x75, 0x3d, 0x05, 0xbd, 0x91, 0xbe, 0x97, 0xb7, 0x07, 0x3e,
  0x5b, 0xda, 0x2b, 0xbe, 0xc8, 0x0b, 0x79, 0x3c, 0x8b, 0x40, 0x78, 0xbe,
  0x74, 0x8e, 0xb6, 0x3e, 0xbd, 0xf1, 0x05, 0x3e, 0x88, 0x80, 0xa7, 0xbe,
  0xb6, 0x19, 0x80, 0x3e, 0x71, 0xb2, 0xf2, 0x3e, 0xd8, 0x8f, 0xcd, 0x3e,
  0x83, 0x9b, 0x40, 0x3e, 0x04, 0xef, 0xb0, 0xbd, 0x62, 0x32, 0x48, 0x3d,
  0xe7, 0x8b, 0x01, 0x3e, 0x1e, 0x78, 0x09, 0xbe, 0x16, 0x13, 0xe7, 0xbe,
  0x5b, 0x9f, 0x02, 0x3e, 0x3d, 0xa8, 0x4b, 0x3e, 0x95, 0xa3, 0x10, 0xbf,
  0xf8, 0x92, 0xf7, 0x3e, 0xf6, 0x5c, 0x0b, 0x3f, 0xfa, 0x85, 0x28, 0x3f,
  0xc8, 0x46, 0x24, 0xbe, 0xab, 0x1d, 0x11, 0x3d, 0xc6, 0x80, 0x70, 0xbe,
  0x30, 0x7e, 0xb6, 0xbd, 0x43, 0x1b, 0x19, 0x3e, 0x1a, 0xfb, 0xc3, 0x3c,
  0x95, 0x7d, 0x06, 0x3e, 0x87, 0x91, 0x56, 0x3e, 0x45, 0x91, 0xbc, 0xbe,
  0x83, 0x1a, 0x7f, 0x3e, 0x7b, 0xfa, 0xb4, 0x3d, 0xbd, 0x19, 0x55, 0x3e,
  0xe2, 0x55, 0x6b, 0x3e, 0x09, 0xe6, 0xed, 0xbd, 0x30, 0x0d, 0x4d, 0x3d,
  0x9f, 0xaf, 0x52, 0x3e, 0xc8, 0xae, 0xb3, 0x3d, 0x00, 0x5b, 0x0a, 0x3e,
  0xbd, 0xe5, 0xab, 0xbe, 0xde, 0x5b, 0x81, 0xbe, 0x53, 0x0a, 0xca, 0x3e,
  0x73, 0x1d, 0x12, 0x3e, 0xd9, 0x10, 0x0e, 0xbd, 0x19, 0x16, 0xc3, 0xbe,
  0x13, 0x66, 0x89, 0xbe, 0x06, 0x92, 0xdb, 0x3d, 0x56, 0x85, 0x38, 0x3e,
  0x21, 0x0a, 0x36, 0x3e, 0xe7, 0x2d, 0x5e, 0x3e, 0xbc, 0x00, 0x94, 0x3d,
  0x60, 0xc3, 0x1a, 0xbe, 0x8f, 0xbb, 0x05, 0xbf, 0xa5, 0xf6, 0x06, 0x3f,
  0x90, 0xd5, 0xc1, 0xbe, 0x47, 0x81, 0x89, 0x3d, 0x31, 0x6b, 0xe1, 0xbe,
  0xc1, 0x27, 0x3a, 0x3c, 0x9f, 0x7c, 0x6f, 0x3d, 0xe6, 0x7a, 0x78, 0xbe,
  0xef, 0x27, 0x9b, 0xbe, 0x01, 0x31, 0x0f, 0x3e, 0x03, 0x94, 0x0d, 0xbe,
  0x67, 0x5f, 0x89, 0x3e, 0x04, 0x6d, 0x02, 0xbf, 0x11, 0x6d, 0x78, 0x3e,
  0xf9, 0x24, 0xb0, 0xbe, 0xcc, 0x45, 0x8d, 0xbd, 0x94, 0x9e, 0x89, 0xbd,
  0x22, 0x38, 0x7d, 0x3d, 0xbf, 0x5f, 0xca, 0xbe, 0x8e, 0x1e, 0x15, 0xbe,
  0xe8, 0xec, 0x6a, 0xbe, 0x2e, 0xa7, 0x92, 0xbe, 0x47, 0x99, 0x49, 0xbe,
  0x8d, 0xd3, 0xc9, 0xbc, 0x57, 0x36, 0x84, 0x3e, 0xbc, 0xd1, 0x56, 0xbe,
  0x6a, 0xb1, 0x18, 0xbe, 0xe4, 0x9f, 0xd6, 0x3e, 0x2d, 0xb3, 0x8d, 0x3e,
  0xbe, 0x8a, 0x0a, 0xbe, 0x36, 0x51, 0x5e, 0xbe, 0xe0, 0xa4, 0xe9, 0xbd,
  0x00, 0xac, 0xca, 0x3c, 0x3d, 0x24, 0xc0, 0xbe, 0x38, 0x6c, 0xdb, 0xbe,
  0x3f, 0xc8, 0x29, 0xbd, 0xd0, 0x10, 0x25, 0xbc, 0x52, 0x71, 0x96, 0xbc,
  0x73, 0xf2, 0x00, 0x3f, 0xb4, 0x63, 0x96, 0x3e, 0x78, 0xe2, 0xcb, 0x3e,
  0x81, 0xb7, 0x77, 0xbe, 0xf7, 0x04, 0x07, 0x3e, 0x83, 0xad, 0x83, 0x3d,
  0x16, 0x84, 0xc8, 0x3d, 0x95, 0xc1, 0x3b, 0xbd, 0x01, 0xff, 0x67, 0xbe,
  0xb0, 0xfb, 0xda, 0xbd, 0x13, 0xc1, 0x04, 0x3e, 0x86, 0xa8, 0xf7, 0x3d,
  0xaa, 0x24, 0x53, 0xbe, 0xaa, 0x88, 0x90, 0x3d, 0x46, 0xdd, 0xd3, 0xbe,
  0xeb, 0x9f, 0x05, 0x3e, 0x2e, 0x83, 0x63, 0x3b, 0x5b, 0x5a, 0x35, 0x3e,
  0x8a, 0xeb, 0x81, 0x3e, 0x60, 0x71, 0x5c, 0x3d, 0x3d, 0xec, 0xb5, 0x3e,
  0xe4, 0x11, 0xe1, 0x3d, 0xe1, 0xe1, 0xab, 0xbe, 0x5a, 0x0d, 0x34, 0xbe,
  0x26, 0x04, 0x91, 0xbd, 0xba, 0x81, 0x1e, 0xbd, 0xaf, 0xe8, 0x2e, 0x3e,
  0x6d, 0x0f, 0xe0, 0xbc, 0x75, 0x60, 0x13, 0xbf, 0x31, 0xc9, 0x8c, 0xbe,
  0x7e, 0xb7, 0x05, 0xbd, 0xd9, 0xf0, 0xca, 0xbe, 0x58, 0xc0, 0x8d, 0xbe,
  0xd5, 0xfb, 0x4c, 0x3e, 0xce, 0x56, 0x16, 0xbe, 0x43, 0xa8, 0x59, 0x3e,
  0x3c, 0x41, 0x26, 0x3e, 0xa1, 0xb3, 0x6b, 0xbe, 0xb0, 0x20, 0x02, 0xbd,
  0x93, 0xfa, 0xce, 0x3e, 0x3c, 0xc5, 0xc4, 0x3e, 0xf8, 0xb2, 0xbb, 0xbe,
  0x56, 0x0f, 0x60, 0xbd, 0x94, 0xe2, 0x81, 0x3e, 0xa7, 0x15, 0xa0, 0x3e,
  0x8e, 0xe7, 0x02, 0x3d, 0x0b, 0x6a, 0xea, 0xbe, 0x03, 0x40, 0x67, 0x3d,
  0x61, 0xdd, 0x6f, 0xbe, 0x79, 0x97, 0xae, 0x3d, 0xa6, 0x72, 0x88, 0xbe,
  0x3a, 0x31, 0xd8, 0x3e, 0x62, 0xe0, 0x0a, 0xbd, 0xc3, 0x08, 0xeb, 0xbc,
  0x54, 0x41, 0x7c, 0xbe, 0xa8, 0x62, 0x24, 0x3d, 0x10, 0xa7, 0x9c, 0x3e,
  0xe4, 0x36, 0xc3, 0xbe, 0x9f, 0xcf, 0x24, 0x3e, 0x3b, 0xf0, 0xff, 0x3c,
  0xf5, 0x5d, 0x75, 0xbc, 0xab, 0xbe, 0x89, 0xbd, 0xdf, 0xc6, 0xef, 0x3c,
  0x2f, 0x1f, 0xad, 0xbd, 0x93, 0x92, 0xde, 0xbe, 0x03, 0x17, 0x0c, 0x3e,
  0xf4, 0x66, 0x15, 0xbe, 0x60, 0x9a, 0xbb, 0x3d, 0x36, 0x4e, 0x0b, 0xbd,
  0x0a, 0x74, 0xd8, 0x3d, 0xc0, 0x37, 0xaf, 0x3e, 0x57, 0xf2, 0xcc, 0x3d,
  0xa1, 0x0b, 0x50, 0x3d, 0x14, 0xf5, 0x45, 0x3e, 0x7b, 0xdd, 0xbb, 0x3d,
  0xe0, 0x57, 0x1d, 0xbd, 0x6a, 0x39, 0xe9, 0x3e, 0x9a, 0xc7, 0x49, 0xbe,
  0x5a, 0x4b, 0xbc, 0x3a, 0x84, 0x19, 0x86, 0x3e, 0x1a, 0xa7, 0xfe, 0x3e,
  0xf0, 0xdc, 0x05, 0x3e, 0xf6, 0x60, 0x23, 0x3e, 0x3d, 0x10, 0xe3, 0xbc,
  0xf8, 0x05, 0x53, 0x3e, 0x88, 0xf9, 0xdc, 0xbc, 0x56, 0x98, 0xb9, 0xbe,
  0xa0, 0x3d, 0x2d, 0xbe, 0xc9, 0xc9, 0xba, 0xbd, 0xe2, 0x70, 0x11, 0xbd,
  0xa0, 0x59, 0x3d, 0x3e, 0xe0, 0xff, 0x49, 0xbe, 0x12, 0x34, 0x9a, 0x3d,
  0x45, 0x03, 0x81, 0xbe, 0x55, 0xb9, 0xa1, 0xbe, 0x2e, 0x29, 0xaa, 0x3d,
  0x76, 0x34, 0xcf, 0x3d, 0x0d, 0x12, 0x82, 0x3d, 0x74, 0x9b, 0x2a, 0x3e,
  0x64, 0x2d, 0x1e, 0x3e, 0x9c, 0x5a, 0xfa, 0x3e, 0x7a, 0x39, 0x98, 0xbd,
  0x76, 0xc7, 0xb8, 0x3e, 0x29, 0x58, 0xff, 0x3e, 0x45, 0x4a, 0x3f, 0xbe,
  0x37, 0xe6, 0x3c, 0xbe, 0x54, 0x56, 0x7f, 0xbe, 0x09, 0xfa, 0x7d, 0x3e,
  0x71, 0x5f, 0x67, 0x3d, 0x64, 0x64, 0xab, 0xbe, 0x2d, 0xc1, 0x40, 0xbe,
  0xaa, 0xec, 0xe9, 0x3e, 0xcb, 0x82, 0x8e, 0xbe, 0xdd, 0xcc, 0xba, 0x3d,
  0x74, 0xe5, 0x73, 0xbe, 0x37, 0xd7, 0x82, 0x3e, 0xcf, 0x11, 0x5b, 0xbe,
  0xcd, 0x82, 0x58, 0x3e, 0x60, 0x21, 0xc9, 0xbd, 0x2b, 0x72, 0x69, 0xbe,
  0x74, 0xa8, 0x4e, 0x3e, 0xea, 0xf4, 0x65, 0x3e, 0x0e, 0xe6, 0x23, 0xbe,
  0x97, 0x28, 0x3b, 0xbd, 0x07, 0x36, 0x8c, 0xbe, 0x69, 0x98, 0x9b, 0xbe,
  0x4d, 0xa0, 0x87, 0xbe, 0xc2, 0x27, 0xb4, 0x3d, 0xc1, 0x09, 0xba, 0xbe,
  0x6d, 0xb8, 0x3e, 0x3e, 0x01, 0xe6, 0x50, 0xbd, 0x17, 0xfa, 0x66, 0x3e,
  0x9c, 0x1e, 0x93, 0x3e, 0x14, 0x22, 0x7b, 0x3e, 0x4b, 0x27, 0x40, 0xbe,
  0xa1, 0x10, 0x2f, 0x3d, 0xca, 0x39, 0x22, 0xbb, 0x4b, 0x9b, 0xa9, 0xbc,
  0x6b, 0x05, 0x3a, 0xbd, 0x49, 0x7e, 0x48, 0xbe, 0x40, 0xbb, 0x25, 0xbe,
  0xf3, 0x49, 0x43, 0xbe, 0xd1, 0x7b, 0xb9, 0xbc, 0x64, 0x4d, 0xad, 0xbd,
  0x11, 0xc9, 0x85, 0xbe, 0x3a, 0x40, 0x1f, 0x3e, 0x7e, 0xba, 0xb0, 0x3e,
  0x5c, 0xd6, 0xcf, 0x3d, 0x36, 0xc1, 0x99, 0x3d, 0x86, 0x1e, 0x30, 0x3e,
  0xe3, 0xd8, 0x45, 0x3d, 0x73, 0xd3, 0xa1, 0xbe, 0x7c, 0x0e, 0x20, 0x3e,
  0x7f, 0x0f, 0x8d, 0xbe, 0x60, 0xf6, 0x48, 0xbe, 0x62, 0xeb, 0xaf, 0xbe,
  0x1a, 0x45, 0xd5, 0x3b, 0xb7, 0x2a, 0x62, 0x3e, 0xdc, 0x79, 0x9c, 0x3d,
  0x92, 0xf1, 0x4a, 0xbe, 0xf6, 0x48, 0xe2, 0xbc, 0x09, 0x7c, 0xca, 0x3b,
  0x22, 0x2d, 0x1b, 0x3e, 0x17, 0x43, 0x85, 0x3e, 0x9d, 0x70, 0x2c, 0xbe,
  0xb6, 0x58, 0x18, 0x3e, 0xd7, 0x25, 0xe4, 0x3d, 0x41, 0x92, 0x78, 0x3e,
  0x5d, 0x0d, 0x5d, 0x3c, 0xc9, 0x87, 0x21, 0xbe, 0xdb, 0x7f, 0xfd, 0x3d,
  0xf1, 0x68, 0x3e, 0x3d, 0xaf, 0x16, 0xaa, 0x3e, 0x7e, 0xc8, 0xc6, 0x3e,
  0x2f, 0x59, 0x24, 0x3e, 0x1c, 0x97, 0x85, 0x3c, 0x4f, 0x18, 0x86, 0x3e,
  0xcc, 0x76, 0x1d, 0x3e, 0xf2, 0x66, 0x6b, 0x3d, 0x08, 0x4e, 0xfc, 0xbc,
  0xcf, 0xaa, 0x82, 0xbe, 0xfc, 0x18, 0x9b, 0x3e, 0x75, 0x47, 0x19, 0x3e,
  0x05, 0xa2, 0x16, 0x3e, 0xc5, 0x54, 0x0f, 0x3e, 0x6c, 0x9c, 0xbd, 0x3e,
  0xd9, 0xa0, 0x57, 0x3e, 0x37, 0xad, 0xdb, 0x3d, 0x2d, 0x40, 0xa2, 0x3d,
  0x11, 0x41, 0x50, 0xbd, 0x94, 0x85, 0x13, 0x3f, 0xec, 0x2f, 0xe1, 0xbe,
  0xaf, 0xe8, 0x0c, 0x3f, 0xc6, 0x83, 0xa9, 0xbd, 0x2a, 0x35, 0xc5, 0x3e,
  0x20, 0x3e, 0xa0, 0x3c, 0x09, 0xb5, 0x58, 0x3e, 0xa5, 0x62, 0x73, 0xbe,
  0xf1, 0x03, 0x38, 0x3e, 0x36, 0xbf, 0x5c, 0xbd, 0xd5, 0x9a, 0x8c, 0x3e,
  0xf7, 0x6c, 0x80, 0xbe, 0xcb, 0x26, 0xdc, 0xbe, 0x04, 0x58, 0xcf, 0x3e,
  0x7f, 0x67, 0x82, 0xbe, 0x7f, 0xab, 0xb4, 0xbe, 0x91, 0x4e, 0x24, 0x3d,
  0x14, 0xcb, 0x8f, 0x3e, 0x41, 0xa4, 0xc5, 0x3a, 0xa6, 0x95, 0x22, 0xbe,
  0xc5, 0xdb, 0x00, 0xbe, 0xe8, 0x6a, 0x86, 0x3c, 0x2a, 0xb6, 0xed, 0xbc,
  0xa2, 0xe2, 0x18, 0xbd, 0xca, 0xa0, 0x5c, 0x3e, 0x68, 0x77, 0x19, 0xbc,
  0x4d, 0xef, 0x01, 0x3e, 0x46, 0xba, 0x77, 0x3e, 0xad, 0xb3, 0xad, 0xbe,
  0xc0, 0x04, 0x87, 0xbe, 0xe6, 0x4d, 0x11, 0xbe, 0x15, 0xc2, 0x01, 0x3e,
  0xd0, 0xbf, 0xb8, 0x3e, 0x85, 0xa9, 0x01, 0xbe, 0xf1, 0x38, 0x08, 0x3e,
  0x85, 0xdc, 0x66, 0x3e, 0xcb, 0x8c, 0x22, 0xbd, 0x41, 0x9e, 0xc2, 0xbe,
  0x8a, 0xa3, 0xbc, 0x3e, 0x91, 0x71, 0xf1, 0x3e, 0xa8, 0x39, 0x8b, 0xbd,
  0xad, 0x6b, 0x1a, 0xbf, 0xc4, 0x83, 0x72, 0xbe, 0xe8, 0x3e, 0x9d, 0xbe,
  0x17, 0x2e, 0x11, 0xbf, 0xe5, 0x86, 0x49, 0x3c, 0x77, 0x1a, 0xff, 0xbe,
  0x26, 0x45, 0xce, 0x3e, 0x9d, 0xc3, 0x24, 0xbe, 0x61, 0x21, 0x1d, 0x3e,
  0x4b, 0xb7, 0x79, 0xbe, 0xf2, 0x86, 0xb6, 0xbe, 0xfb, 0xc4, 0x04, 0xbe,
  0x68, 0x2b, 0x44, 0xbe, 0xc7, 0x1e, 0xb0, 0x3c, 0x2e, 0xa6, 0x9b, 0xbe,
  0x99, 0x32, 0xda, 0xbe, 0xc5, 0xb9, 0xdf, 0x3e, 0xc9, 0x73, 0xdc, 0x3d,
  0xb5, 0xa2, 0x20, 0x3e, 0x96, 0x28, 0xab, 0x3b, 0xec, 0xa3, 0xd0, 0x3d,
  0x29, 0xe9, 0xf3, 0xbe, 0x09, 0x3d, 0x2f, 0x3c, 0xa4, 0x25, 0xe0, 0xbe,
  0xaf, 0x7d, 0x6a, 0xbe, 0xf2, 0x36, 0x24, 0x3e, 0x6a, 0xe7, 0x10, 0xbd,
  0xc3, 0xf6, 0xe5, 0x3d, 0x49, 0x50, 0x46, 0x3e, 0x37, 0xe6, 0xca, 0xbe,
  0x9d, 0x0c, 0xda, 0xbc, 0xac, 0x2d, 0x93, 0xbe, 0xd7, 0x04, 0x8e, 0x3e,
  0x46, 0xaf, 0x15, 0xbe, 0x20, 0xaf, 0x09, 0xbe, 0x4d, 0x87, 0xfc, 0x3c,
  0xe0, 0xc7, 0x94, 0x3d, 0xe0, 0xc9, 0xd9, 0x3e, 0x93, 0xd8, 0x23, 0x3d,
  0x1d, 0x53, 0x6d, 0xbe, 0x87, 0xc4, 0x24, 0x3e, 0x0e, 0x2b, 0x28, 0x3e,
  0xbc, 0xf0, 0x09, 0x3e, 0x65, 0x5b, 0x76, 0xbe, 0x26, 0xa4, 0x5d, 0x3e,
  0x3f, 0x43, 0xd8, 0x3e, 0x61, 0x7c, 0x87, 0xbe, 0x2d, 0xbd, 0x2c, 0xbd,
  0x7b, 0xad, 0x5f, 0xbe, 0x6a, 0xa2, 0x21, 0xbe, 0x39, 0x19, 0x65, 0x3e,
  0x69, 0x2f, 0x09, 0xbe, 0x93, 0x30, 0xc5, 0x3e, 0xcd, 0x11, 0x08, 0xbe,
  0x05, 0x61, 0xcf, 0xbd, 0x4a, 0x19, 0x5a, 0x3d, 0xd0, 0xee, 0x32, 0xbd,
  0x2f, 0x1d, 0x60, 0x3e, 0xc2, 0xa2, 0x44, 0xbe, 0xd8, 0xfa, 0x84, 0xbe,
  0x37, 0x72, 0x89, 0xbe, 0x0a, 0x27, 0x04, 0xbe, 0x66, 0xc6, 0x67, 0x3e,
  0x4a, 0x6a, 0x3b, 0x3d, 0xa7, 0xbe, 0x26, 0xbd, 0x9e, 0xec, 0xd9, 0x3d,
  0x01, 0x4c, 0xbd, 0xbe, 0x62, 0x9c, 0x00, 0xbe, 0x4f, 0x9b, 0xe6, 0xbe,
  0x88, 0xb8, 0xc0, 0x3e, 0x2b, 0x18, 0xc2, 0xbc, 0x82, 0x6e, 0xc1, 0x3d,
  0x66, 0xfc, 0xff, 0xff, 0x04, 0x00, 0x00, 0x00, 0x00, 0x02, 0x00, 0x00,
  0xb2, 0x17, 0xe1, 0xbb, 0x05, 0xa5, 0x20, 0x3f, 0x36, 0x24, 0x53, 0xbc,
  0x2b, 0xd9, 0x10, 0x3f, 0xaf, 0xd1, 0xcb, 0xbe, 0xf1, 0xec, 0xbe, 0x3e,
  0xd8, 0xb1, 0xce, 0x3e, 0x40, 0x88, 0xe6, 0x3e, 0x47, 0xcf, 0x3a, 0x3f,
  0x4e, 0x32, 0x23, 0x3f, 0x7e, 0x27, 0x0a, 0xbc, 0xac, 0x0b, 0xa5, 0xbe,
  0x4e, 0x41, 0x89, 0x3e, 0xf3, 0x14, 0x41, 0xbd, 0xc9, 0xad, 0xdd, 0xbe,
  0xbf, 0xbb, 0xe8, 0xbe, 0x5a, 0x54, 0x87, 0x3b, 0x2f, 0x80, 0xb5, 0x3c,
  0x41, 0x72, 0xc6, 0xbd, 0x23, 0x3f, 0x03, 0xbd, 0x11, 0xde, 0xf3, 0x3e,
  0x59, 0x7c, 0x8f, 0x3e, 0x14, 0x62, 0x0e, 0xbe, 0xfd, 0xdc, 0xa2, 0xbe,
  0xad, 0xb9, 0xaa, 0x3e, 0x8d, 0x07, 0x0b, 0xbf, 0x57, 0xf8, 0x33, 0x3f,
  0x75, 0x0a, 0x88, 0xbd, 0x93, 0x1d, 0x3e, 0x3f, 0xec, 0xf0, 0xb5, 0x3e,
  0x66, 0xba, 0x36, 0xbe, 0xa5, 0x3c, 0x09, 0x3f, 0x1a, 0x3b, 0x3d, 0xbe,
  0x50, 0x42, 0x96, 0xbe, 0x9e, 0xd0, 0xc5, 0x3d, 0x1b, 0xd4, 0x00, 0xbf,
  0xfa, 0x38, 0x73, 0xbe, 0xc1, 0x82, 0x51, 0xbe, 0x76, 0x36, 0xf3, 0x3e,
  0x4e, 0x79, 0x8d, 0xbe, 0x3c, 0x74, 0x32, 0x3e, 0xbd, 0x77, 0x9b, 0xbe,
  0xbc, 0x07, 0x12, 0xbe, 0x4d, 0xcd, 0x8a, 0x3e, 0x64, 0x65, 0x67, 0xbc,
  0xc4, 0x4b, 0x34, 0xbf, 0x9e, 0xeb, 0x30, 0x3f, 0xc9, 0x95, 0xdc, 0xbd,
  0xd0, 0x46, 0x21, 0x3f, 0x25, 0x64, 0xdf, 0x3e, 0x77, 0xea, 0xaf, 0x3d,
  0xaa, 0x44, 0x05, 0x3e, 0xee, 0xd8, 0x04, 0xbe, 0x9b, 0x43, 0x34, 0x3f,
  0x1e, 0xb9, 0x99, 0xbe, 0x9f, 0x4b, 0x44, 0x3e, 0x1f, 0x0e, 0x89, 0xbe,
  0x90, 0x61, 0xba, 0x3d, 0x36, 0x57, 0x93, 0xbe, 0x28, 0x41, 0x00, 0x3f,
  0x1e, 0x74, 0x53, 0x3e, 0x46, 0x87, 0xe2, 0xbe, 0x72, 0xc9, 0x8e, 0x3e,
  0xbf, 0xd4, 0x44, 0xbd, 0x74, 0x5e, 0x65, 0xbe, 0x3e, 0x90, 0x2c, 0xbf,
  0xce, 0xcd, 0x36, 0x3f, 0xca, 0xfd, 0xf3, 0xbe, 0x7f, 0xfc, 0x2a, 0xbc,
  0x5f, 0x48, 0x93, 0x3e, 0x0a, 0x12, 0x27, 0x3f, 0x0c, 0xc5, 0x85, 0x3e,
  0xa4, 0x98, 0x32, 0x3f, 0x01, 0x57, 0x97, 0x3e, 0xba, 0x33, 0x60, 0xbe,
  0x4a, 0xf4, 0x6b, 0xbe, 0xda, 0x43, 0x8f, 0xbe, 0xd8, 0x1a, 0x3a, 0xbe,
  0x12, 0x12, 0xce, 0xbd, 0x3e, 0x45, 0x44, 0xbd, 0x0c, 0x4e, 0x02, 0xbd,
  0x1f, 0xb5, 0x80, 0x3e, 0x8b, 0x5c, 0x37, 0xbe, 0xd2, 0x26, 0xc5, 0x3e,
  0xa2, 0xd3, 0xfa, 0xbe, 0x5f, 0x92, 0x7f, 0xbe, 0x31, 0x6a, 0x14, 0x3f,
  0x8f, 0xde, 0x5a, 0xbe, 0x4b, 0x9f, 0xd0, 0xbe, 0x6e, 0xb8, 0xb8, 0x3c,
  0x14, 0x31, 0x26, 0x3f, 0xf9, 0x90, 0xb9, 0xbe, 0x7c, 0xe3, 0x87, 0xbc,
  0x83, 0x7c, 0xaa, 0xbe, 0x30, 0xb7, 0x98, 0x3e, 0x2c, 0x9d, 0x21, 0x3e,
  0xf0, 0xc3, 0x43, 0x3e, 0x8d, 0xf8, 0x03, 0xbf, 0x31, 0xa4, 0x82, 0xbe,
  0x38, 0x4d, 0xae, 0x3e, 0x72, 0xa1, 0x72, 0xbe, 0x36, 0x65, 0x52, 0x3e,
  0x23, 0x2e, 0xf6, 0xbe, 0xc3, 0x54, 0x32, 0xbe, 0x9c, 0x65, 0xc0, 0xbc,
  0x0c, 0xee, 0x8d, 0xbe, 0xc4, 0x25, 0x43, 0xbd, 0xbd, 0xf3, 0xa4, 0xbd,
  0x7d, 0xab, 0x0c, 0xbf, 0x72, 0x3b, 0x94, 0x3d, 0x23, 0xde, 0xed, 0x3d,
  0x35, 0x5c, 0x63, 0x3d, 0x9d, 0xff, 0x38, 0xbe, 0x90, 0x7d, 0x44, 0xbe,
  0x63, 0x7f, 0x1b, 0x3e, 0xdf, 0xda, 0xe6, 0xbe, 0x94, 0xcf, 0x32, 0x3c,
  0x73, 0x7b, 0xaa, 0x3d, 0x7f, 0x78, 0x6b, 0x3e, 0xfb, 0x61, 0x96, 0xbd,
  0x87, 0x93, 0xa3, 0x3d, 0x1a, 0xa0, 0x69, 0x3c, 0xca, 0x5f, 0x05, 0x3f,
  0x08, 0xd2, 0x72, 0xbd, 0x7c, 0x80, 0xbb, 0x3e, 0x7d, 0x58, 0xb7, 0xbe,
  0x51, 0xd8, 0xa9, 0x3e, 0x9e, 0xdd, 0xa4, 0xbe, 0x72, 0xfe, 0xff, 0xff,
  0x04, 0x00, 0x00, 0x00, 0xa0, 0x00, 0x00, 0x00, 0x2a, 0xef, 0xbd, 0x3e,
  0x00, 0x55, 0x2f, 0xbd, 0x15, 0x74, 0x5b, 0xbf, 0x55, 0x40, 0x33, 0xbf,
  0x10, 0xba, 0x25, 0xbf, 0x8b, 0x8c, 0x38, 0x3f, 0x19, 0xba, 0xa8, 0xbe,
  0x29, 0xd6, 0x01, 0x3f, 0xc0, 0x37, 0x13, 0x3f, 0x63, 0x5a, 0x26, 0xbf,
  0xc0, 0xe5, 0x48, 0xbf, 0x6b, 0xc6, 0x8a, 0x3e, 0xaa, 0x00, 0x82, 0xbe,
  0xb8, 0xc7, 0x37, 0xbf, 0xd6, 0x56, 0x70, 0xbe, 0xc7, 0x3d, 0x24, 0xbf,
  0x61, 0x9c, 0x57, 0xbe, 0xe6, 0xeb, 0xcb, 0x3e, 0x5f, 0x86, 0xb0, 0xbe,
  0xb9, 0x74, 0x18, 0x3e, 0xa4, 0x08, 0x1a, 0xbf, 0xcd, 0x99, 0x71, 0xbe,
  0x99, 0x26, 0x5b, 0xbe, 0xe3, 0x40, 0xd4, 0xbd, 0x78, 0xf4, 0x44, 0xbf,
  0x2b, 0x8f, 0x0c, 0xbf, 0x93, 0x5e, 0xa9, 0x3e, 0x3f, 0xc0, 0xb8, 0xbd,
  0x4b, 0xe5, 0xab, 0x3e, 0xc6, 0x72, 0x93, 0x3e, 0x61, 0xe0, 0xbb, 0x3e,
  0x1c, 0xc5, 0x34, 0x3f, 0xa2, 0x57, 0x1e, 0x3f, 0xb2, 0xcb, 0x2a, 0xbf,
  0x69, 0xa1, 0xcc, 0xbe, 0x56, 0x32, 0x13, 0xbf, 0xa3, 0x76, 0x0e, 0x3f,
  0xea, 0x42, 0xb7, 0xbe, 0xe9, 0x10, 0xa0, 0x3c, 0xfc, 0xa6, 0xac, 0x3e,
  0x1e, 0xff, 0xff, 0xff, 0x04, 0x00, 0x00, 0x00, 0x14, 0x00, 0x00, 0x00,
  0xa8, 0x6c, 0xab, 0xbc, 0x81, 0x6d, 0x19, 0x3e, 0x8a, 0xc0, 0xb5, 0xbd,
  0x08, 0x2a, 0x97, 0x3d, 0x10, 0x06, 0x1a, 0xbe, 0x3e, 0xff, 0xff, 0xff,
  0x04, 0x00, 0x00, 0x00, 0x20, 0x00, 0x00, 0x00, 0x95, 0xd4, 0x77, 0xba,
  0xef, 0x14, 0xad, 0xbc, 0xd8, 0x2f, 0x46, 0x3e, 0xe7, 0x5a, 0x49, 0x3e,
  0x4e, 0xfd, 0x30, 0x3e, 0x06, 0x6a, 0x50, 0x3e, 0x3e, 0x38, 0xb3, 0xbd,
  0x22, 0x51, 0x73, 0x3d, 0xd0, 0xf9, 0xff, 0xff, 0xd4, 0xf9, 0xff, 0xff,
  0x0f, 0x00, 0x00, 0x00, 0x4d, 0x4c, 0x49, 0x52, 0x20, 0x43, 0x6f, 0x6e,
  0x76, 0x65, 0x72, 0x74, 0x65, 0x64, 0x2e, 0x00, 0x01, 0x00, 0x00, 0x00,
  0x14, 0x00, 0x00, 0x00, 0x00, 0x00, 0x0e, 0x00, 0x18, 0x00, 0x14, 0x00,
  0x10, 0x00, 0x0c, 0x00, 0x08, 0x00, 0x04, 0x00, 0x0e, 0x00, 0x00, 0x00,
  0x14, 0x00, 0x00, 0x00, 0x1c, 0x00, 0x00, 0x00, 0x34, 0x01, 0x00, 0x00,
  0x38, 0x01, 0x00, 0x00, 0x3c, 0x01, 0x00, 0x00, 0x04, 0x00, 0x00, 0x00,
  0x6d, 0x61, 0x69, 0x6e, 0x00, 0x00, 0x00, 0x00, 0x04, 0x00, 0x00, 0x00,
  0xdc, 0x00, 0x00, 0x00, 0x94, 0x00, 0x00, 0x00, 0x50, 0x00, 0x00, 0x00,
  0x14, 0x00, 0x00, 0x00, 0x00, 0x00, 0x0e, 0x00, 0x1a, 0x00, 0x14, 0x00,
  0x10, 0x00, 0x0c, 0x00, 0x0b, 0x00, 0x04, 0x00, 0x0e, 0x00, 0x00, 0x00,
  0x1c, 0x00, 0x00, 0x00, 0x00, 0x00, 0x00, 0x09, 0x1c, 0x00, 0x00, 0x00,
  0x20, 0x00, 0x00, 0x00, 0x01, 0x00, 0x00, 0x00, 0x00, 0x00, 0x06, 0x00,
  0x08, 0x00, 0x04, 0x00, 0x06, 0x00, 0x00, 0x00, 0x00, 0x00, 0x80, 0x3f,
  0x01, 0x00, 0x00, 0x00, 0x0a, 0x00, 0x00, 0x00, 0x01, 0x00, 0x00, 0x00,
  0x09, 0x00, 0x00, 0x00, 0xce, 0xff, 0xff, 0xff, 0x10, 0x00, 0x00, 0x00,
  0x00, 0x00, 0x00, 0x08, 0x0c, 0x00, 0x00, 0x00, 0x10, 0x00, 0x00, 0x00,
  0x98, 0xfa, 0xff, 0xff, 0x01, 0x00, 0x00, 0x00, 0x09, 0x00, 0x00, 0x00,
  0x03, 0x00, 0x00, 0x00, 0x08, 0x00, 0x00, 0x00, 0x03, 0x00, 0x00, 0x00,
  0x02, 0x00, 0x00, 0x00, 0x00, 0x00, 0x0e, 0x00, 0x14, 0x00, 0x00, 0x00,
  0x10, 0x00, 0x0c, 0x00, 0x0b, 0x00, 0x04, 0x00, 0x0e, 0x00, 0x00, 0x00,
  0x10, 0x00, 0x00, 0x00, 0x00, 0x00, 0x00, 0x08, 0x10, 0x00, 0x00, 0x00,
  0x14, 0x00, 0x00, 0x00, 0xba, 0xff, 0xff, 0xff, 0x00, 0x00, 0x00, 0x01,
  0x01, 0x00, 0x00, 0x00, 0x08, 0x00, 0x00, 0x00, 0x03, 0x00, 0x00, 0x00,
  0x07, 0x00, 0x00, 0x00, 0x04, 0x00, 0x00, 0x00, 0x01, 0x00, 0x00, 0x00,
  0x00, 0x00, 0x0e, 0x00, 0x16, 0x00, 0x00, 0x00, 0x10, 0x00, 0x0c, 0x00,
  0x0b, 0x00, 0x04, 0x00, 0x0e, 0x00, 0x00, 0x00, 0x18, 0x00, 0x00, 0x00,
  0x00, 0x00, 0x00, 0x08, 0x18, 0x00, 0x00, 0x00, 0x1c, 0x00, 0x00, 0x00,
  0x00, 0x00, 0x06, 0x00, 0x08, 0x00, 0x07, 0x00, 0x06, 0x00, 0x00, 0x00,
  0x00, 0x00, 0x00, 0x01, 0x01, 0x00, 0x00, 0x00, 0x07, 0x00, 0x00, 0x00,
  0x03, 0x00, 0x00, 0x00, 0x00, 0x00, 0x00, 0x00, 0x05, 0x00, 0x00, 0x00,
  0x06, 0x00, 0x00, 0x00, 0x01, 0x00, 0x00, 0x00, 0x0a, 0x00, 0x00, 0x00,
  0x01, 0x00, 0x00, 0x00, 0x00, 0x00, 0x00, 0x00, 0x0b, 0x00, 0x00, 0x00,
  0x80, 0x04, 0x00, 0x00, 0xfc, 0x03, 0x00, 0x00, 0x90, 0x03, 0x00, 0x00,
  0x38, 0x03, 0x00, 0x00, 0xe8, 0x02, 0x00, 0x00, 0x98, 0x02, 0x00, 0x00,
  0x2c, 0x02, 0x00, 0x00, 0x8c, 0x01, 0x00, 0x00, 0xec, 0x00, 0x00, 0x00,
  0x60, 0x00, 0x00, 0x00, 0x04, 0x00, 0x00, 0x00, 0xc2, 0xfb, 0xff, 0xff,
  0x00, 0x00, 0x00, 0x01, 0x14, 0x00, 0x00, 0x00, 0x1c, 0x00, 0x00, 0x00,
  0x1c, 0x00, 0x00, 0x00, 0x0b, 0x00, 0x00, 0x00, 0x34, 0x00, 0x00, 0x00,
  0x02, 0x00, 0x00, 0x00, 0xff, 0xff, 0xff, 0xff, 0x05, 0x00, 0x00, 0x00,
  0xac, 0xfb, 0xff, 0xff, 0x1b, 0x00, 0x00, 0x00, 0x53, 0x74, 0x61, 0x74,
  0x65, 0x66, 0x75, 0x6c, 0x50, 0x61, 0x72, 0x74, 0x69, 0x74, 0x69, 0x6f,
  0x6e, 0x65, 0x64, 0x43, 0x61, 0x6c, 0x6c, 0x5f, 0x31, 0x3a, 0x30, 0x00,
  0x02, 0x00, 0x00, 0x00, 0x01, 0x00, 0x00, 0x00, 0x05, 0x00, 0x00, 0x00,
  0x1a, 0xfc, 0xff, 0xff, 0x00, 0x00, 0x00, 0x01, 0x14, 0x00, 0x00, 0x00,
  0x1c, 0x00, 0x00, 0x00, 0x1c, 0x00, 0x00, 0x00, 0x0a, 0x00, 0x00, 0x00,
  0x64, 0x00, 0x00, 0x00, 0x02, 0x00, 0x00, 0x00, 0xff, 0xff, 0xff, 0xff,
  0x05, 0x00, 0x00, 0x00, 0x04, 0xfc, 0xff, 0xff, 0x4a, 0x00, 0x00, 0x00,
  0x73, 0x65, 0x71, 0x75, 0x65, 0x6e, 0x74, 0x69, 0x61, 0x6c, 0x5f, 0x31,
  0x5f, 0x31, 0x2f, 0x6f, 0x75, 0x74, 0x70, 0x75, 0x74, 0x5f, 0x6c, 0x61,
  0x79, 0x65, 0x72, 0x5f, 0x31, 0x2f, 0x4d, 0x61, 0x74, 0x4d, 0x75, 0x6c,
  0x3b, 0x73, 0x65, 0x71, 0x75, 0x65, 0x6e, 0x74, 0x69, 0x61, 0x6c, 0x5f,
  0x31, 0x5f, 0x31, 0x2f, 0x6f, 0x75, 0x74, 0x70, 0x75, 0x74, 0x5f, 0x6c,
  0x61, 0x79, 0x65, 0x72, 0x5f, 0x31, 0x2f, 0x42, 0x69, 0x61, 0x73, 0x41,
  0x64, 0x64, 0x00, 0x00, 0x02, 0x00, 0x00, 0x00, 0x01, 0x00, 0x00, 0x00,
  0x05, 0x00, 0x00, 0x00, 0xa2, 0xfc, 0xff, 0xff, 0x00, 0x00, 0x00, 0x01,
  0x14, 0x00, 0x00, 0x00, 0x1c, 0x00, 0x00, 0x00, 0x1c, 0x00, 0x00, 0x00,
  0x09, 0x00, 0x00, 0x00, 0x78, 0x00, 0x00, 0x00, 0x02, 0x00, 0x00, 0x00,
  0xff, 0xff, 0xff, 0xff, 0x08, 0x00, 0x00, 0x00, 0x8c, 0xfc, 0xff, 0xff,
  0x5e, 0x00, 0x00, 0x00, 0x73, 0x65, 0x71, 0x75, 0x65, 0x6e, 0x74, 0x69,
  0x61, 0x6c, 0x5f, 0x31, 0x5f, 0x31, 0x2f, 0x64, 0x65, 0x6e, 0x73, 0x65,
  0x5f, 0x32, 0x5f, 0x31, 0x2f, 0x4d, 0x61, 0x74, 0x4d, 0x75, 0x6c, 0x3b,
  0x73, 0x65, 0x71, 0x75, 0x65, 0x6e, 0x74, 0x69, 0x61, 0x6c, 0x5f, 0x31,
  0x5f, 0x31, 0x2f, 0x64, 0x65, 0x6e, 0x73, 0x65, 0x5f, 0x32, 0x5f, 0x31,
  0x2f, 0x52, 0x65, 0x6c, 0x75, 0x3b, 0x73, 0x65, 0x71, 0x75, 0x65, 0x6e,
  0x74, 0x69, 0x61, 0x6c, 0x5f, 0x31, 0x5f, 0x31, 0x2f, 0x64, 0x65, 0x6e,
  0x73, 0x65, 0x5f, 0x32, 0x5f, 0x31, 0x2f, 0x42, 0x69, 0x61, 0x73, 0x41,
  0x64, 0x64, 0x00, 0x00, 0x02, 0x00, 0x00, 0x00, 0x01, 0x00, 0x00, 0x00,
  0x08, 0x00, 0x00, 0x00, 0x3e, 0xfd, 0xff, 0xff, 0x00, 0x00, 0x00, 0x01,
  0x14, 0x00, 0x00, 0x00, 0x1c, 0x00, 0x00, 0x00, 0x1c, 0x00, 0x00, 0x00,
  0x08, 0x00, 0x00, 0x00, 0x78, 0x00, 0x00, 0x00, 0x02, 0x00, 0x00, 0x00,
  0xff, 0xff, 0xff, 0xff, 0x10, 0x00, 0x00, 0x00, 0x28, 0xfd, 0xff, 0xff,
  0x5e, 0x00, 0x00, 0x00, 0x73, 0x65, 0x71, 0x75, 0x65, 0x6e, 0x74, 0x69,
  0x61, 0x6c, 0x5f, 0x31, 0x5f, 0x31, 0x2f, 0x64, 0x65, 0x6e, 0x73, 0x65,
  0x5f, 0x31, 0x5f, 0x31, 0x2f, 0x4d, 0x61, 0x74, 0x4d, 0x75, 0x6c, 0x3b,
  0x73, 0x65, 0x71, 0x75, 0x65, 0x6e, 0x74, 0x69, 0x61, 0x6c, 0x5f, 0x31,
  0x5f, 0x31, 0x2f, 0x64, 0x65, 0x6e, 0x73, 0x65, 0x5f, 0x31, 0x5f, 0x31,
  0x2f, 0x52, 0x65, 0x6c, 0x75, 0x3b, 0x73, 0x65, 0x71, 0x75, 0x65, 0x6e,
  0x74, 0x69, 0x61, 0x6c, 0x5f, 0x31, 0x5f, 0x31, 0x2f, 0x64, 0x65, 0x6e,
  0x73, 0x65, 0x5f, 0x31, 0x5f, 0x31, 0x2f, 0x42, 0x69, 0x61, 0x73, 0x41,
  0x64, 0x64, 0x00, 0x00, 0x02, 0x00, 0x00, 0x00, 0x01, 0x00, 0x00, 0x00,
  0x10, 0x00, 0x00, 0x00, 0x5a, 0xfe, 0xff, 0xff, 0x00, 0x00, 0x00, 0x01,
  0x10, 0x00, 0x00, 0x00, 0x10, 0x00, 0x00, 0x00, 0x07, 0x00, 0x00, 0x00,
  0x4c, 0x00, 0x00, 0x00, 0xb4, 0xfd, 0xff, 0xff, 0x3e, 0x00, 0x00, 0x00,
  0x73, 0x65, 0x71, 0x75, 0x65, 0x6e, 0x74, 0x69, 0x61, 0x6c, 0x5f, 0x31,
  0x5f, 0x31, 0x2f, 0x64, 0x65, 0x6e, 0x73, 0x65, 0x5f, 0x31, 0x5f, 0x31,
  0x2f, 0x52, 0x65, 0x6c, 0x75, 0x3b, 0x73, 0x65, 0x71, 0x75, 0x65, 0x6e,
  0x74, 0x69, 0x61, 0x6c, 0x5f, 0x31, 0x5f, 0x31, 0x2f, 0x64, 0x65, 0x6e,
  0x73, 0x65, 0x5f, 0x31, 0x5f, 0x31, 0x2f, 0x42, 0x69, 0x61, 0x73, 0x41,
  0x64, 0x64, 0x00, 0x00, 0x01, 0x00, 0x00, 0x00, 0x10, 0x00, 0x00, 0x00,
  0xc2, 0xfe, 0xff, 0xff, 0x00, 0x00, 0x00, 0x01, 0x10, 0x00, 0x00, 0x00,
  0x10, 0x00, 0x00, 0x00, 0x06, 0x00, 0x00, 0x00, 0x2c, 0x00, 0x00, 0x00,
  0x1c, 0xfe, 0xff, 0xff, 0x1f, 0x00, 0x00, 0x00, 0x73, 0x65, 0x71, 0x75,
  0x65, 0x6e, 0x74, 0x69, 0x61, 0x6c, 0x5f, 0x31, 0x5f, 0x31, 0x2f, 0x64,
  0x65, 0x6e, 0x73, 0x65, 0x5f, 0x31, 0x5f, 0x31, 0x2f, 0x4d, 0x61, 0x74,
  0x4d, 0x75, 0x6c, 0x00, 0x02, 0x00, 0x00, 0x00, 0x10, 0x00, 0x00, 0x00,
  0x24, 0x00, 0x00, 0x00, 0x0e, 0xff, 0xff, 0xff, 0x00, 0x00, 0x00, 0x01,
  0x10, 0x00, 0x00, 0x00, 0x10, 0x00, 0x00, 0x00, 0x05, 0x00, 0x00, 0x00,
  0x2c, 0x00, 0x00, 0x00, 0x68, 0xfe, 0xff, 0xff, 0x1f, 0x00, 0x00, 0x00,
  0x73, 0x65, 0x71, 0x75, 0x65, 0x6e, 0x74, 0x69, 0x61, 0x6c, 0x5f, 0x31,
  0x5f, 0x31, 0x2f, 0x64, 0x65, 0x6e, 0x73, 0x65, 0x5f, 0x32, 0x5f, 0x31,
  0x2f, 0x4d, 0x61, 0x74, 0x4d, 0x75, 0x6c, 0x00, 0x02, 0x00, 0x00, 0x00,
  0x08, 0x00, 0x00, 0x00, 0x10, 0x00, 0x00, 0x00, 0x5a, 0xff, 0xff, 0xff,
  0x00, 0x00, 0x00, 0x01, 0x10, 0x00, 0x00, 0x00, 0x10, 0x00, 0x00, 0x00,
  0x04, 0x00, 0x00, 0x00, 0x34, 0x00, 0x00, 0x00, 0xb4, 0xfe, 0xff, 0xff,
  0x24, 0x00, 0x00, 0x00, 0x73, 0x65, 0x71, 0x75, 0x65, 0x6e, 0x74, 0x69,
  0x61, 0x6c, 0x5f, 0x31, 0x5f, 0x31, 0x2f, 0x6f, 0x75, 0x74, 0x70, 0x75,
  0x74, 0x5f, 0x6c, 0x61, 0x79, 0x65, 0x72, 0x5f, 0x31, 0x2f, 0x4d, 0x61,
  0x74, 0x4d, 0x75, 0x6c, 0x00, 0x00, 0x00, 0x00, 0x02, 0x00, 0x00, 0x00,
  0x05, 0x00, 0x00, 0x00, 0x08, 0x00, 0x00, 0x00, 0xae, 0xff, 0xff, 0xff,
  0x00, 0x00, 0x00, 0x01, 0x10, 0x00, 0x00, 0x00, 0x10, 0x00, 0x00, 0x00,
  0x03, 0x00, 0x00, 0x00, 0x34, 0x00, 0x00, 0x00, 0x08, 0xff, 0xff, 0xff,
  0x25, 0x00, 0x00, 0x00, 0x73, 0x65, 0x71, 0x75, 0x65, 0x6e, 0x74, 0x69,
  0x61, 0x6c, 0x5f, 0x31, 0x5f, 0x31, 0x2f, 0x6f, 0x75, 0x74, 0x70, 0x75,
  0x74, 0x5f, 0x6c, 0x61, 0x79, 0x65, 0x72, 0x5f, 0x31, 0x2f, 0x42, 0x69,
  0x61, 0x73, 0x41, 0x64, 0x64, 0x00, 0x00, 0x00, 0x01, 0x00, 0x00, 0x00,
  0x05, 0x00, 0x00, 0x00, 0x00, 0x00, 0x16, 0x00, 0x18, 0x00, 0x14, 0x00,
  0x00, 0x00, 0x10, 0x00, 0x0c, 0x00, 0x08, 0x00, 0x00, 0x00, 0x00, 0x00,
  0x00, 0x00, 0x07, 0x00, 0x16, 0x00, 0x00, 0x00, 0x00, 0x00, 0x00, 0x01,
  0x10, 0x00, 0x00, 0x00, 0x10, 0x00, 0x00, 0x00, 0x02, 0x00, 0x00, 0x00,
  0x4c, 0x00, 0x00, 0x00, 0x70, 0xff, 0xff, 0xff, 0x3e, 0x00, 0x00, 0x00,
  0x73, 0x65, 0x71, 0x75, 0x65, 0x6e, 0x74, 0x69, 0x61, 0x6c, 0x5f, 0x31,
  0x5f, 0x31, 0x2f, 0x64, 0x65, 0x6e, 0x73, 0x65, 0x5f, 0x32, 0x5f, 0x31,
  0x2f, 0x52, 0x65, 0x6c, 0x75, 0x3b, 0x73, 0x65, 0x71, 0x75, 0x65, 0x6e,
  0x74, 0x69, 0x61, 0x6c, 0x5f, 0x31, 0x5f, 0x31, 0x2f, 0x64, 0x65, 0x6e,
  0x73, 0x65, 0x5f, 0x32, 0x5f, 0x31, 0x2f, 0x42, 0x69, 0x61, 0x73, 0x41,
  0x64, 0x64, 0x00, 0x00, 0x01, 0x00, 0x00, 0x00, 0x08, 0x00, 0x00, 0x00,
  0x00, 0x00, 0x16, 0x00, 0x1c, 0x00, 0x18, 0x00, 0x00, 0x00, 0x14, 0x00,
  0x10, 0x00, 0x0c, 0x00, 0x00, 0x00, 0x00, 0x00, 0x08, 0x00, 0x07, 0x00,
  0x16, 0x00, 0x00, 0x00, 0x00, 0x00, 0x00, 0x01, 0x14, 0x00, 0x00, 0x00,
  0x20, 0x00, 0x00, 0x00, 0x20, 0x00, 0x00, 0x00, 0x01, 0x00, 0x00, 0x00,
  0x3c, 0x00, 0x00, 0x00, 0x02, 0x00, 0x00, 0x00, 0xff, 0xff, 0xff, 0xff,
  0x24, 0x00, 0x00, 0x00, 0x04, 0x00, 0x04, 0x00, 0x04, 0x00, 0x00, 0x00,
  0x1d, 0x00, 0x00, 0x00, 0x73, 0x65, 0x72, 0x76, 0x69, 0x6e, 0x67, 0x5f,
  0x64, 0x65, 0x66, 0x61, 0x75, 0x6c, 0x74, 0x5f, 0x69, 0x6e, 0x70, 0x75,
  0x74, 0x5f, 0x6c, 0x61, 0x79, 0x65, 0x72, 0x3a, 0x30, 0x00, 0x00, 0x00,
  0x02, 0x00, 0x00, 0x00, 0x01, 0x00, 0x00, 0x00, 0x24, 0x00, 0x00, 0x00,
  0x02, 0x00, 0x00, 0x00, 0x20, 0x00, 0x00, 0x00, 0x04, 0x00, 0x00, 0x00,
  0xf4, 0xff, 0xff, 0xff, 0x19, 0x00, 0x00, 0x00, 0x00, 0x00, 0x00, 0x19,
  0x0c, 0x00, 0x0c, 0x00, 0x0b, 0x00, 0x00, 0x00, 0x00, 0x00, 0x04, 0x00,
  0x0c, 0x00, 0x00, 0x00, 0x09, 0x00, 0x00, 0x00, 0x00, 0x00, 0x00, 0x09
};

#endif // MODEL_DATA_H
